<unk>	0
<s>	0
</s>	0
,	-3.18262
▁the	-3.30748
.	-3.58074
▁	-3.7189
s	-3.76138
▁of	-3.88076
▁and	-4.04646
▁in	-4.06677
▁a	-4.13566
▁to	-4.43488
▁==	-4.6133
ed	-4.66742
ing	-4.91219
▁is	-4.95873
▁(	-4.96832
▁The	-4.99329
-	-5.09849
▁was	-5.10445
▁"	-5.11824
▁as	-5.25014
d	-5.25411
▁for	-5.29664
▁by	-5.3042
'	-5.3138
▁on	-5.3432
"	-5.37763
)	-5.40958
ly	-5.43656
▁with	-5.48001
n	-5.48338
e	-5.49161
▁that	-5.57505
y	-5.62501
▁at	-5.65391
:	-5.65908
▁or	-5.72857
▁===	-5.74132
from	-5.80944
▁be	-5.83265
▁an	-5.92904
▁are	-5.96617
▁In	-6.00545
al	-6.02249
▁A	-6.10657
▁it	-6.10785
▁which	-6.15937
a	-6.18723
er	-6.20144
lso	-6.24687
▁his	-6.26513
▁he	-6.29306
▁has	-6.31859
t	-6.38327
▁S	-6.38798
▁who	-6.5358
▁one	-6.54683
▁He	-6.54878
o	-6.55766
to	-6.55884
▁cryptic	-6.58943
l	-6.596
;	-6.60598
▁this	-6.61612
▁but	-6.61648
▁first	-6.63286
▁not	-6.64202
▁clue	-6.64894
in	-6.68706
▁It	-6.69395
have	-6.69794
▁ban	-6.71822
▁E	-6.72489
".	-6.73581
▁its	-6.75491
on	-6.75959
),	-6.79571
were	-6.79966
th	-6.8035
r	-6.82815
▁C	-6.83652
▁References	-6.84355
es	-6.86438
an	-6.86714
▁New	-6.87217
▁c	-6.8812
The	-6.88471
▁two	-6.8988
).	-6.91858
▁film	-6.92109
▁T	-6.94359
▁F	-6.97565
▁crossword	-6.98712
▁had	-6.99515
ir	-6.9974
or	-7.04395
▁I	-7.04456
▁been	-7.07317
▁University	-7.09857
ten	-7.10645
▁can	-7.10854
▁such	-7.11265
i	-7.12193
▁other	-7.13923
▁public	-7.16965
▁would	-7.1704
m	-7.18086
D	-7.19056
▁B	-7.19963
k	-7.20357
st	-7.20721
▁L	-7.21408
In	-7.22851
▁used	-7.23751
▁they	-7.23847
▁wear	-7.24435
▁P	-7.24821
▁un	-7.24842
▁O	-7.25454
▁some	-7.25531
▁up	-7.26202
▁word	-7.26396
more	-7.26409
▁R	-7.27334
▁Church	-7.27853
▁all	-7.28261
▁answer	-7.2942
▁U	-7.31606
▁Hard	-7.31722
en	-7.31848
▁M	-7.31994
um	-7.34818
▁name	-7.35143
▁use	-7.35762
▁link	-7.36526
▁where	-7.36782
▁her	-7.36813
▁Die	-7.38479
ce	-7.38856
▁letters	-7.39395
ies	-7.40117
▁D	-7.40446
ion	-7.4065
after	-7.41042
ve	-7.42905
A	-7.43889
▁about	-7.44321
▁set	-7.44519
▁clues	-7.45962
▁part	-7.46352
▁over	-7.46669
▁crosswords	-7.46865
▁re	-7.47373
▁3	-7.49647
▁made	-7.50003
▁National	-7.50138
▁puzzle	-7.50188
▁example	-7.50242
S	-7.50299
▁G	-7.50671
▁m	-7.5069
▁than	-7.51024
▁words	-7.52528
▁American	-7.52965
▁al	-7.53866
▁may	-7.5625
▁people	-7.5634
▁between	-7.56341
▁Cup	-7.56369
▁H	-7.57012
Islamic	-7.57155
▁'	-7.57595
▁–	-7.57657
ern	-7.57728
le	-7.58502
▁so	-7.58612
▁Thi	-7.58643
▁West	-7.58679
▁through	-7.58722
-19	-7.59571
▁no	-7.60187
▁Re	-7.60466
▁there	-7.60662
▁United	-7.60846
▁release	-7.61064
▁1	-7.61147
▁work	-7.61591
▁new	-7.61691
is	-7.61953
▁John	-7.629
▁t	-7.63058
▁years	-7.64307
g	-7.64546
▁N	-7.65131
able	-7.65168
us	-7.65918
▁e	-7.66708
▁them	-7.67364
▁under	-7.67438
▁both	-7.67993
VI	-7.68114
▁religious	-7.68142
/	-7.6824
▁most	-7.69006
▁w	-7.69331
▁found	-7.69333
ar	-7.70026
▁include	-7.70205
▁women	-7.70477
▁bridge	-7.70566
▁CO	-7.71055
▁de	-7.71844
as	-7.72332
▁Gabriel	-7.73042
▁McClane	-7.73123
▁each	-7.73169
▁2010	-7.73333
▁law	-7.73478
many	-7.73734
▁being	-7.73878
▁allow	-7.74917
▁W	-7.75056
▁mean	-7.75341
▁three	-7.75764
▁August	-7.75845
▁form	-7.75904
▁b	-7.75906
▁state	-7.76166
▁May	-7.76226
▁second	-7.76336
ous	-7.78185
▁government	-7.78376
▁Times	-7.78447
▁including	-7.78598
▁schism	-7.79274
re	-7.7928
out	-7.79476
h	-7.79767
at	-7.8012
▁d	-7.80212
▁know	-7.81594
▁On	-7.82001
f	-7.82216
▁large	-7.82338
C	-7.82366
▁As	-7.82963
c	-7.83031
▁puzzles	-7.83683
ation	-7.83735
▁York	-7.83797
▁NY	-7.84002
▁number	-7.85082
B	-7.8512
▁An	-7.85375
▁out	-7.87035
▁British	-7.87042
▁consider	-7.87244
▁call	-7.87292
b	-7.87497
▁States	-7.87609
▁like	-7.87845
▁St	-7.89536
ic	-7.89602
only	-7.89992
▁four	-7.90348
▁well	-7.90695
▁letter	-7.91335
▁f	-7.91584
▁these	-7.92085
▁Ex	-7.92862
▁same	-7.93139
▁For	-7.93472
▁English	-7.93631
while	-7.94255
man	-7.94782
if	-7.95218
ment	-7.95238
▁Australia	-7.96542
ily	-7.9667
▁then	-7.96854
▁city	-7.96965
▁unti	-7.97524
▁Muslim	-7.97894
▁time	-7.98555
ers	-7.98694
▁play	-7.98723
▁company	-7.99647
▁different	-7.99695
▁March	-7.99792
▁later	-7.99919
▁last	-8.00013
▁Lee	-8.00195
uring	-8.00511
▁ft	-8.01231
ould	-8.01276
▁definition	-8.01467
▁whe	-8.02039
▁sever	-8.02137
▁5	-8.02238
▁place	-8.02666
▁career	-8.0317
▁following	-8.0318
▁College	-8.03215
▁series	-8.03216
▁December	-8.03333
ril	-8.03809
ary	-8.03959
▁2	-8.04273
ternal	-8.04403
▁schools	-8.04473
▁support	-8.0467
▁Art	-8.04939
▁feature	-8.05709
▁face	-8.06042
▁Co	-8.06128
▁do	-8.06523
▁Kottke	-8.07032
▁national	-8.0764
▁One	-8.07743
ton	-8.08436
▁J	-8.08612
."	-8.09311
ity	-8.09716
▁History	-8.10373
▁House	-8.10409
the	-8.10425
▁built	-8.10491
▁September	-8.10497
▁against	-8.10523
▁language	-8.10633
▁another	-8.10781
▁Ap	-8.10895
–	-8.10897
▁order	-8.10913
▁make	-8.11296
it	-8.11298
▁any	-8.11629
▁meter	-8.1212
▁year	-8.13229
▁long	-8.13533
▁2017	-8.13719
▁20	-8.14049
se	-8.14234
▁early	-8.14584
▁European	-8.14803
ry	-8.14938
though	-8.1552
▁main	-8.15763
▁team	-8.16329
▁week	-8.16389
▁p	-8.16463
▁See	-8.1683
▁Free	-8.16876
▁small	-8.17626
▁full	-8.18004
▁2007	-8.18137
▁non	-8.18198
▁previous	-8.18219
▁said	-8.1822
▁Super	-8.18221
▁July	-8.18254
▁way	-8.18285
▁since	-8.18368
▁around	-8.18481
▁won	-8.19258
▁bank	-8.1987
▁2014	-8.20154
▁local	-8.2016
ical	-8.20439
▁anagram	-8.2047
▁18	-8.20473
▁Cryptic	-8.20549
▁burqa	-8.20611
▁become	-8.20704
▁issue	-8.20925
ial	-8.21103
▁Act	-8.2122
▁show	-8.22084
w	-8.22147
▁[	-8.22382
▁Farrell	-8.22382
▁six	-8.22386
▁because	-8.22416
▁clothing	-8.22417
▁remain	-8.22479
▁2015	-8.22538
▁Press	-8.22569
▁him	-8.22585
▁published	-8.22865
▁back	-8.23005
▁original	-8.2321
▁GhaPE	-8.23236
▁she	-8.23352
▁2019	-8.24391
▁take	-8.24795
▁case	-8.25061
▁th	-8.25392
▁wh	-8.2541
2	-8.25691
I	-8.25882
▁Oc	-8.25932
u	-8.25983
ive	-8.2615
ch	-8.26255
▁l	-8.26601
▁similar	-8.2673
▁usual	-8.26742
▁Tour	-8.26788
▁Roman	-8.2689
▁down	-8.27835
▁s	-8.27929
▁12	-8.28699
▁setters	-8.28789
▁high	-8.28902
▁start	-8.28951
▁Al	-8.2953
▁contain	-8.29625
▁2016	-8.29696
▁ex	-8.29954
ized	-8.30074
mber	-8.30367
é	-8.30826
ley	-8.30888
nt	-8.30925
▁2006	-8.3125
▁International	-8.31276
▁Court	-8.31276
▁Bridge	-8.31278
▁Party	-8.31283
▁Turkey	-8.31296
▁Moldova	-8.31358
▁World	-8.3142
▁along	-8.31537
ian	-8.31604
▁g	-8.31755
▁After	-8.3232
3	-8.32648
▁2021	-8.33552
▁2018	-8.33813
▁magazine	-8.34044
▁2012	-8.34046
▁setter	-8.34268
et	-8.34299
▁school	-8.34436
▁Th	-8.34702
▁game	-8.34769
▁right	-8.34802
com	-8.35463
▁2013	-8.35632
▁member	-8.35905
’	-8.36037
▁website	-8.36039
▁should	-8.36048
▁football	-8.3605
▁Other	-8.36098
▁short	-8.36155
▁Sunday	-8.36191
▁No	-8.36469
▁Jan	-8.36597
ent	-8.36722
▁based	-8.36919
ter	-8.36934
▁event	-8.37479
T	-8.37974
▁2011	-8.38349
▁Nove	-8.38361
K	-8.38612
▁Some	-8.38941
▁K	-8.39073
▁indicator	-8.3917
ne	-8.39341
▁refer	-8.39347
▁say	-8.39559
▁There	-8.39874
▁She	-8.40065
▁co	-8.40119
bor	-8.40222
▁Zealand	-8.41037
▁headscarves	-8.4104
▁Castle	-8.41049
▁dress	-8.41059
N	-8.41067
▁8	-8.41144
▁every	-8.4117
▁headscarf	-8.41191
▁particular	-8.41192
▁However	-8.41192
ance	-8.41204
▁Chao	-8.41315
variety	-8.41446
▁lead	-8.41492
▁students	-8.41592
▁De	-8.41604
▁BC	-8.41669
▁best	-8.42096
▁now	-8.4239
▁others	-8.42474
el	-8.42595
▁line	-8.42604
▁book	-8.42932
▁bill	-8.43321
▁vote	-8.4358
1	-8.43733
▁15	-8.43827
te	-8.43975
▁n	-8.44179
▁newspaper	-8.44391
▁Crossword	-8.4441
▁2008	-8.45147
times	-8.45198
▁hav	-8.45844
▁Telegraph	-8.463
▁June	-8.46309
▁PG	-8.46349
ated	-8.46391
▁will	-8.46432
▁London	-8.46458
▁&	-8.46622
▁List	-8.46694
▁7	-8.46804
▁station	-8.46929
▁per	-8.46956
▁general	-8.46969
▁cryptics	-8.47025
▁Not	-8.47222
ok	-8.4768
p	-8.47817
▁La	-8.48055
▁receive	-8.48092
▁Islam	-8.4813
▁record	-8.48312
]	-8.48403
▁French	-8.48459
▁6	-8.485
ally	-8.48745
▁All	-8.49117
▁2009	-8.49169
▁War	-8.49187
ur	-8.49247
")	-8.49469
▁novel	-8.49762
▁album	-8.4984
▁version	-8.49944
▁system	-8.49961
▁veil	-8.49985
0	-8.50047
▁graph	-8.50099
▁group	-8.50141
▁Live	-8.50463
▁near	-8.50632
▁America	-8.51396
x	-8.51453
▁church	-8.51654
ish	-8.51677
V	-8.51797
▁School	-8.51839
▁Mennonite	-8.51856
▁power	-8.51866
▁result	-8.51885
▁Christian	-8.51887
▁Leeds	-8.51897
uary	-8.51925
▁among	-8.51948
▁education	-8.52047
▁Germany	-8.52135
▁da	-8.52138
▁Achillini	-8.52215
rated	-8.52256
▁UK	-8.52271
▁style	-8.52277
▁Howard	-8.52419
▁just	-8.52553
▁====	-8.52829
red	-8.52903
▁19	-8.53076
▁included	-8.53113
▁area	-8.54124
▁top	-8.54391
▁final	-8.54472
▁di	-8.5452
me	-8.54539
▁indicate	-8.54562
▁var	-8.54592
7	-8.54615
▁-	-8.55169
▁2004	-8.55452
z	-8.55768
▁Catholic	-8.55874
▁season	-8.5588
▁Comp	-8.56126
▁title	-8.57173
by	-8.57324
▁2020	-8.57413
▁common	-8.57566
▁Askøy	-8.57738
▁Council	-8.57738
▁council	-8.57738
▁Government	-8.57739
▁late	-8.57743
ate	-8.57753
▁spoken	-8.57767
▁life	-8.57778
Lineage	-8.5784
▁half	-8.57901
▁Project	-8.57911
▁North	-8.57925
▁Con	-8.58064
▁Willis	-8.58117
ook	-8.58158
▁official	-8.58437
▁wide	-8.58529
ra	-8.58599
▁Easter	-8.58708
age	-8.58784
▁points	-8.58814
came	-8.58883
▁day	-8.58887
▁v	-8.58897
▁Er	-8.59676
and	-8.60083
▁get	-8.60518
▁parliament	-8.60576
▁type	-8.60622
▁come	-8.60654
fficial	-8.6072
ted	-8.60742
▁11	-8.61035
ha	-8.61676
still	-8.62581
▁grid	-8.63043
▁end	-8.63191
▁V	-8.63201
R	-8.63374
▁meaning	-8.63461
▁site	-8.63885
▁Response	-8.63988
▁individual	-8.63988
▁Street	-8.63988
▁phrase	-8.63988
▁Museum	-8.6399
▁Society	-8.63993
▁claim	-8.63993
▁Ltd	-8.63994
▁regard	-8.63994
▁role	-8.63998
▁least	-8.64002
▁Minister	-8.64017
▁old	-8.64033
▁France	-8.64044
▁construction	-8.64054
▁County	-8.64065
▁announced	-8.64092
▁five	-8.64143
▁certain	-8.64168
▁Turkish	-8.6417
▁current	-8.64186
▁reading	-8.64391
▁described	-8.64406
▁century	-8.64408
▁African	-8.64426
▁Sa	-8.6463
▁relat	-8.64709
5	-8.64746
▁need	-8.64851
ck	-8.64965
▁appears	-8.65443
▁sub	-8.65927
▁Exte	-8.66336
fore	-8.6634
tion	-8.66808
▁en	-8.67856
rnal	-8.6806
ng	-8.6813
▁Ghanaian	-8.6861
▁population	-8.68653
▁solver	-8.68905
way	-8.69999
ved	-8.70104
house	-8.70107
▁German	-8.70328
▁off	-8.70432
▁16	-8.70487
▁cover	-8.70535
▁Parliament	-8.70655
▁Pidgin	-8.70655
▁kārum	-8.70655
▁Richard	-8.70656
▁death	-8.70658
▁himself	-8.70659
▁country	-8.70662
▁wordplay	-8.70666
▁million	-8.70707
▁possible	-8.7077
▁Washington	-8.70847
▁Italian	-8.70848
▁Rings	-8.70936
▁proposal	-8.70942
▁you	-8.70962
▁II	-8.70981
▁Mission	-8.70984
▁Guardian	-8.71079
he	-8.71141
▁regular	-8.71149
▁Purdy	-8.71324
be	-8.71363
▁du	-8.71523
▁Solan	-8.71553
▁=	-8.7156
na	-8.71946
▁h	-8.7198
▁rules	-8.71997
▁His	-8.72018
ber	-8.72188
U	-8.72362
▁i	-8.72544
▁Da	-8.72627
nergy	-8.72664
cal	-8.72911
▁less	-8.7293
▁groups	-8.73371
4	-8.73456
▁2001	-8.73962
▁Nov	-8.74227
ine	-8.74305
ember	-8.74617
using	-8.74899
▁Mi	-8.74972
ism	-8.75072
▁person	-8.7518
signed	-8.75285
▁states	-8.75449
day	-8.75554
▁pidgin	-8.75626
ober	-8.75699
am	-8.75739
▁though	-8.75804
▁pro	-8.75815
▁Ch	-8.75948
▁Ho	-8.76109
▁attack	-8.7616
▁building	-8.76255
▁level	-8.76304
ble	-8.7643
O	-8.76455
▁toll	-8.77168
▁find	-8.77353
▁select	-8.77416
▁23	-8.77553
▁mu	-8.77626
id	-8.77727
▁attempt	-8.77798
▁February	-8.77798
▁Guahibo	-8.77798
▁Lecture	-8.77798
▁Wakefield	-8.77798
▁heresy	-8.77806
▁Center	-8.77809
▁family	-8.7781
▁sound	-8.77816
▁political	-8.77822
▁Justi	-8.77831
▁Austria	-8.77849
▁Film	-8.7785
▁2023	-8.77868
▁Bologna	-8.78012
▁former	-8.78023
P	-8.7803
▁writ	-8.78055
▁across	-8.78085
▁Green	-8.78178
uch	-8.78221
▁Thunderbird	-8.78253
son	-8.78297
▁major	-8.78316
▁berry	-8.78348
▁pass	-8.78486
▁want	-8.78619
▁Ban	-8.78692
▁taken	-8.788
▁see	-8.78835
IS	-8.79108
▁head	-8.79196
▁did	-8.79222
▁William	-8.79254
▁dis	-8.79581
▁services	-8.79595
▁30	-8.79675
▁put	-8.79966
▁Pa	-8.80285
▁24	-8.80337
▁Whe	-8.80403
▁Road	-8.80416
ist	-8.80447
▁provide	-8.80477
▁veils	-8.80484
▁beg	-8.80616
▁Crosswords	-8.8065
▁o	-8.81126
ever	-8.81139
▁date	-8.81143
ld	-8.81481
▁films	-8.81679
ct	-8.81782
▁10	-8.81783
covering	-8.82099
rd	-8.82585
nest	-8.82836
ia	-8.83171
rs	-8.83192
▁religion	-8.83459
▁standard	-8.83503
▁sea	-8.83514
▁service	-8.83586
▁paper	-8.83594
efore	-8.83832
est	-8.83838
Solan	-8.83848
▁solution	-8.83956
▁Li	-8.84017
▁own	-8.84164
▁21	-8.84197
▁Sha	-8.84365
▁East	-8.8468
▁13	-8.84935
ight	-8.84956
,000	-8.8497
ther	-8.85053
▁leader	-8.85189
6	-8.85196
il	-8.85315
▁list	-8.85391
▁universities	-8.8549
▁DVD	-8.8549
▁fruit	-8.85491
▁Genera	-8.85493
▁entire	-8.85495
▁rather	-8.85495
▁editor	-8.85496
▁minister	-8.85501
▁Director	-8.85505
▁Assyrian	-8.85547
▁specific	-8.85547
▁rating	-8.85562
▁authority	-8.85566
▁1997	-8.85575
ose	-8.85684
▁{\	-8.85688
▁home	-8.8569
▁Bennett	-8.85703
▁Mar	-8.85703
▁Division	-8.85704
▁does	-8.85866
▁third	-8.85906
▁established	-8.85949
H	-8.86024
▁acquir	-8.86045
▁developed	-8.86188
▁pre	-8.86197
▁David	-8.86556
▁appear	-8.86809
▁live	-8.86865
▁cut	-8.86907
very	-8.86949
▁members	-8.86966
▁compiler	-8.8704
L	-8.87964
▁South	-8.88203
▁la	-8.88437
ey	-8.88544
so	-8.8865
rom	-8.89445
moved	-8.89641
▁con	-8.8965
▁we	-8.89723
▁Her	-8.89749
▁places	-8.89886
un	-8.90001
On	-8.90426
most	-8.90528
▁even	-8.90594
▁2005	-8.90902
gen	-8.91007
▁son	-8.91193
▁period	-8.91615
▁go	-8.91749
tic	-8.91815
▁article	-8.91955
▁State	-8.92039
▁municipalit	-8.92078
▁car	-8.92094
▁31	-8.9268
▁To	-8.9294
▁Africa	-8.93237
▁Europe	-8.93699
▁difficult	-8.937
▁collect	-8.93733
-17	-8.93764
▁consist	-8.93816
▁Brooklyn	-8.93823
▁liburna	-8.93823
▁Kreider	-8.93824
▁average	-8.93824
▁target	-8.93824
▁district	-8.93825
▁Japanese	-8.93827
▁community	-8.93834
▁legal	-8.93841
▁Institute	-8.93858
▁High	-8.93861
▁China	-8.93865
▁100	-8.93872
▁believe	-8.93885
▁popular	-8.939
▁Po	-8.93909
▁1980	-8.9398
▁annual	-8.93999
▁university	-8.94048
▁League	-8.9405
▁addition	-8.94051
▁Saturday	-8.94051
▁Polish	-8.94054
▁train	-8.94125
ca	-8.94156
▁script	-8.94162
▁opened	-8.94273
▁left	-8.94277
▁times	-8.94303
▁Ximenean	-8.94348
▁Liber	-8.94351
▁father	-8.94352
not	-8.9442
▁guitars	-8.9443
non	-8.94522
▁characters	-8.94615
▁symbols	-8.94707
ie	-8.94816
▁recorded	-8.94933
▁party	-8.95307
▁express	-8.95363
▁/	-8.95545
▁seven	-8.95953
▁Bo	-8.96004
▁stated	-8.96137
ology	-8.9621
▁action	-8.96219
▁solvers	-8.96306
sion	-8.96546
▁profession	-8.96696
▁su	-8.97562
▁rule	-8.97764
▁ma	-8.97796
▁mus	-8.9854
▁term	-8.98827
face	-8.99447
up	-8.99453
▁Be	-8.99548
▁Dai	-8.99967
▁2022	-9.0021
▁Do	-9.00581
trie	-9.00802
▁burka	-9.00937
▁space	-9.00973
▁hijab	-9.0106
▁section	-9.01091
▁niqab	-9.01117
9	-9.01227
ttle	-9.01235
less	-9.01372
▁At	-9.01729
▁don	-9.01811
▁stop	-9.0198
▁reject	-9.02005
style	-9.02204
F	-9.02283
!	-9.02325
í	-9.02467
▁process	-9.0273
▁Orthodox	-9.02791
—	-9.02914
▁Brunswick	-9.02914
▁Canadian	-9.02914
▁Hittite	-9.02914
▁Netherlands	-9.02914
▁Swindon	-9.02914
▁vaccination	-9.02914
▁Nigeria	-9.02914
▁Nicola	-9.02915
▁Profess	-9.02915
▁double	-9.02917
▁Norway	-9.02918
▁body	-9.02919
▁Company	-9.02925
▁Republic	-9.02927
▁TCH	-9.0293
▁Herald	-9.0293
▁Italy	-9.02931
▁debut	-9.02942
▁Journal	-9.02948
▁cyber	-9.02951
▁coast	-9.02954
▁woman	-9.02955
▁species	-9.03064
▁Vietnam	-9.03159
▁City	-9.03171
▁River	-9.03171
▁legislation	-9.03183
▁parties	-9.03198
▁look	-9.03223
▁speakers	-9.03225
▁km	-9.03237
▁banned	-9.03296
▁(4)	-9.03299
▁given	-9.03352
▁grow	-9.03376
▁sold	-9.03391
▁recent	-9.03394
%	-9.03559
▁east	-9.03593
▁14	-9.03644
▁instead	-9.03713
▁k	-9.03718
▁clear	-9.03861
advanced	-9.04053
▁Auto	-9.04065
▁Pacific	-9.04149
M	-9.04195
▁But	-9.04295
▁Public	-9.04305
▁indicated	-9.04352
ting	-9.04405
ities	-9.0443
▁cap	-9.04449
ful	-9.04476
▁traditional	-9.0472
▁playing	-9.04853
▁view	-9.04859
▁Z	-9.04903
ho	-9.05012
▁Mo	-9.0511
▁land	-9.05144
▁Air	-9.05394
▁("	-9.05426
ts	-9.05641
▁try	-9.05735
▁side	-9.05739
▁covering	-9.05757
land	-9.05962
▁By	-9.06053
go	-9.06625
.:	-9.06626
▁par	-9.0669
.,	-9.07074
▁1998	-9.07205
ship	-9.07254
▁Sun	-9.07331
▁Ext	-9.07388
▁Sher	-9.07483
▁loc	-9.07551
▁personal	-9.0767
tter	-9.07721
pol	-9.07725
▁read	-9.07797
▁vari	-9.07799
▁present	-9.07826
ma	-9.08146
▁project	-9.08294
1970	-9.08556
ning	-9.08606
▁Muslims	-9.08607
▁employ	-9.08649
ta	-9.09365
▁Ac	-9.0941
nd	-9.09505
wards	-9.0957
held	-9.09743
▁typical	-9.09896
▁control	-9.10293
▁give	-9.10742
gan	-9.10847
ior	-9.10901
▁sign	-9.11127
ver	-9.11209
▁program	-9.11215
▁schismatic	-9.11291
ernal	-9.11397
la	-9.11468
▁Ro	-9.12019
▁Se	-9.12049
▁25	-9.12159
▁parts	-9.12232
▁damage	-9.1235
ious	-9.12611
▁road	-9.12806
▁2003	-9.12807
▁Le	-9.12829
▁again	-9.12836
▁(5)	-9.12839
▁Kosovo	-9.12914
▁frequent	-9.12914
▁together	-9.12914
▁break	-9.12914
▁Trinity	-9.12915
▁survey	-9.12915
▁countries	-9.12915
▁decision	-9.12916
▁multi	-9.12916
▁Bergen	-9.12917
▁help	-9.12918
▁Thomas	-9.12919
▁south	-9.12922
▁battle	-9.12929
▁James	-9.12937
▁international	-9.12939
▁Dunal	-9.1294
▁edition	-9.12945
▁Great	-9.12951
▁Media	-9.12955
▁modern	-9.12984
▁below	-9.12989
▁single	-9.13008
▁Home	-9.13034
▁22	-9.13037
▁Union	-9.13061
our	-9.13068
▁institutions	-9.1307
-13	-9.13107
▁good	-9.13124
▁fair	-9.13156
▁world	-9.13184
▁approved	-9.13193
▁human	-9.13238
▁Rights	-9.13239
▁26	-9.13437
▁story	-9.1348
ty	-9.13536
▁Ximenes	-9.1354
▁Wassaic	-9.13542
▁se	-9.13546
for	-9.13563
▁Mary	-9.1362
▁page	-9.13691
tarian	-9.13733
▁sing	-9.13792
▁workers	-9.13866
▁Cope	-9.1396
▁effect	-9.14075
thing	-9.14109
▁fall	-9.14126
▁hand	-9.14342
▁months	-9.14366
▁wood	-9.14473
hen	-9.14644
▁offer	-9.14714
▁Fa	-9.14823
de	-9.14864
ence	-9.14902
ite	-9.15161
▁mi	-9.15192
▁Carl	-9.15383
ological	-9.15609
▁Gu	-9.15724
▁close	-9.16053
▁56	-9.16085
▁code	-9.16255
▁plan	-9.1636
urther	-9.16382
his	-9.16715
▁exist	-9.16752
▁Nation	-9.16763
ro	-9.16809
8	-9.16905
▁2020.	-9.17097
▁music	-9.1715
▁17	-9.17181
▁Park	-9.17311
ple	-9.17355
died	-9.17413
▁gives	-9.17416
▁primar	-9.17542
der	-9.17602
▁Top	-9.17707
▁bor	-9.17892
▁Me	-9.18168
west	-9.18171
ya	-9.18221
▁attend	-9.18303
▁challenge	-9.18431
(	-9.18473
▁types	-9.18665
▁4	-9.18908
ol	-9.19054
▁controvers	-9.19089
▁r	-9.19159
ations	-9.1916
beth	-9.19239
▁Hop	-9.19558
partial	-9.19891
▁north	-9.20012
iff	-9.20154
field	-9.20304
old	-9.20339
uk	-9.20405
▁works	-9.20544
led	-9.20748
are	-9.2088
like	-9.21073
ears	-9.21249
▁came	-9.2134
▁carrie	-9.21514
▁mak	-9.21594
▁prohibition	-9.21796
▁research	-9.21882
▁mo	-9.22055
ability	-9.22125
▁Ri	-9.22307
▁publication	-9.22347
▁Asia	-9.22491
ere	-9.22598
ions	-9.2263
ood	-9.22665
▁Je	-9.23049
▁Bru	-9.23147
▁Ru	-9.2326
▁join	-9.2329
▁Albania	-9.23356
ri	-9.23608
▁super	-9.23819
v	-9.23874
▁com	-9.2394
?	-9.24025
▁Cathedral	-9.24025
▁Group	-9.24025
▁Muhammad	-9.24025
▁cemetery	-9.24025
▁England	-9.24025
▁FBI	-9.24025
▁children	-9.24025
▁society	-9.24025
▁Kingdom	-9.24025
▁Guzura	-9.24026
▁Smith	-9.24027
▁accept	-9.24029
▁retired	-9.24031
▁however	-9.24031
▁Andrew	-9.24035
▁successful	-9.24036
▁Maryland	-9.24038
▁Human	-9.24039
▁native	-9.24046
Vaccination	-9.24046
▁Poland	-9.24046
▁operations	-9.24048
▁appearance	-9.24053
▁development	-9.24053
▁chosen	-9.24058
▁outside	-9.24058
▁suffer	-9.2407
▁Magazine	-9.24071
▁majority	-9.24075
▁Christianity	-9.2408
▁hacker	-9.24089
▁Army	-9.24116
FA	-9.24131
▁interest	-9.24138
▁great	-9.24187
▁changed	-9.24193
we	-9.24202
▁adopted	-9.24206
▁Sunni	-9.24228
▁experience	-9.24315
▁hidden	-9.24333
▁Bill	-9.2438
▁coach	-9.24411
▁Summ	-9.24441
▁nature	-9.24486
▁st	-9.24495
▁introduced	-9.24535
▁(3)	-9.24595
▁thought	-9.24596
iform	-9.24701
▁keep	-9.24727
▁security	-9.24792
▁Russian	-9.25129
▁Ha	-9.25139
▁Blue	-9.25206
cording	-9.25278
▁point	-9.25452
ti	-9.25539
end	-9.25541
▁artist	-9.25604
▁Ba	-9.25719
)}	-9.25794
▁rest	-9.25977
▁Awards	-9.26033
50	-9.26054
ant	-9.26152
▁accord	-9.26225
▁Ma	-9.26244
king	-9.26358
▁Na	-9.26438
▁edited	-9.26518
▁Lu	-9.26949
ina	-9.27076
▁Wi	-9.2709
▁photograph	-9.27095
▁art	-9.27106
▁buildings	-9.27169
▁once	-9.27176
Y	-9.27367
▁secular	-9.27696
W	-9.27993
▁Head	-9.28009
▁formed	-9.28113
▁here	-9.28138
ge	-9.28164
▁past	-9.28188
▁author	-9.28228
▁men	-9.28237
▁newspapers	-9.28309
▁island	-9.28493
one	-9.28541
▁west	-9.28673
▁plann	-9.28848
ni	-9.28964
▁tru	-9.29051
earing	-9.29066
omoti	-9.2907
ating	-9.29215
ought	-9.29259
▁50	-9.29357
nother	-9.29552
▁systems	-9.29568
▁represent	-9.29699
om	-9.29942
cy	-9.30134
ew	-9.30231
ke	-9.30258
▁post	-9.30374
▁trade	-9.30409
ced	-9.30424
▁elect	-9.3048
▁operat	-9.30521
ick	-9.3066
do	-9.30777
▁Ph	-9.30902
▁king	-9.31048
G	-9.31279
▁fire	-9.3132
▁applie	-9.31525
▁access	-9.31528
chair	-9.32131
▁focus	-9.32294
rish	-9.32345
ard	-9.32357
display	-9.32496
▁receiv	-9.32514
returned	-9.32572
▁Earl	-9.32798
ely	-9.32883
▁suspen	-9.3305
bert	-9.33058
liza	-9.33077
US	-9.33145
ext	-9.33214
ure	-9.3325
ection	-9.33266
ward	-9.33467
▁act	-9.33488
saw	-9.33672
▁tour	-9.33775
▁vi	-9.34059
▁Ga	-9.34144
▁female	-9.34246
▁street	-9.34253
▁office	-9.3428
▁Service	-9.34392
▁competition	-9.34395
▁instrument	-9.34467
ich	-9.34585
▁Island	-9.34598
▁Q	-9.3468
▁inter	-9.34782
▁Award	-9.34811
▁pair	-9.34846
per	-9.34911
ball	-9.35025
ong	-9.35042
served	-9.35102
▁position	-9.35295
vin	-9.35592
▁1992	-9.35707
▁hold	-9.35752
read	-9.35891
os	-9.36039
▁month	-9.36121
wa	-9.36143
▁nation	-9.36284
NO	-9.36328
▁success	-9.3647
cycl	-9.36472
▁create	-9.36498
▁Ghana	-9.36505
ā	-9.36522
▁Baltimore	-9.36525
▁themselves	-9.36525
ludesvenlafaxine	-9.36525
á	-9.36525
▁Cemetery	-9.36525
▁Development	-9.36525
▁Double	-9.36525
▁Express	-9.36525
▁Jamaica	-9.36525
▁Kumamoto	-9.36525
▁Meghoo	-9.36525
▁Oxford	-9.36525
▁People	-9.36525
▁Yolanda	-9.36525
▁perhaps	-9.36525
▁torvum	-9.36525
▁Britain	-9.36526
▁preoccupied	-9.36526
▁Spoonerism	-9.36528
▁village	-9.36528
▁daughter	-9.36528
▁Davies	-9.36529
▁married	-9.36529
▁behind	-9.3653
▁Mosque	-9.3653
▁license	-9.36532
▁Bliss	-9.36532
▁always	-9.3654
▁Independent	-9.36548
▁history	-9.36556
▁Biography	-9.36558
▁agreement	-9.36558
▁Kret	-9.36572
▁medicine	-9.36575
▁Peter	-9.36576
▁Parish	-9.3658
▁beginning	-9.36582
▁Year	-9.36601
▁prior	-9.36601
▁belong	-9.36639
rote	-9.36641
▁Hall	-9.36658
▁carry	-9.3666
appeared	-9.36664
▁concern	-9.36669
▁match	-9.36672
▁ruling	-9.36699
▁important	-9.36754
▁1990	-9.36764
▁Mark	-9.36769
▁2000	-9.368
▁cross	-9.36821
▁scored	-9.36822
basket	-9.36846
▁rock	-9.36846
▁black	-9.36849
ified	-9.36859
▁Foreign	-9.3686
▁piece	-9.36882
▁young	-9.36924
▁stating	-9.3693
▁required	-9.36932
▁favor	-9.36951
▁square	-9.36998
▁teaching	-9.37017
▁available	-9.3708
ring	-9.37083
▁Wall	-9.37084
▁recogniz	-9.37117
▁created	-9.37139
▁total	-9.37197
light	-9.37202
▁changes	-9.37231
▁Un	-9.37241
▁That	-9.37284
▁commonly	-9.37316
▁answers	-9.37317
▁Minsk	-9.37323
▁Whale	-9.37323
▁whether	-9.37355
▁cost	-9.37364
▁refuse	-9.37373
▁+	-9.37402
▁Pak	-9.37437
▁travel	-9.37453
▁Sciences	-9.3747
▁Laos	-9.37509
traffic	-9.37534
▁wins	-9.37547
▁few	-9.37551
1)	-9.37651
▁tak	-9.37672
▁fro	-9.37676
▁town	-9.37726
▁teachers	-9.37741
ness	-9.37768
▁finish	-9.37782
▁shown	-9.37914
▁Works	-9.37915
▁Sh	-9.37953
▁ca	-9.37953
▁extend	-9.38163
▁Fi	-9.38218
tor	-9.38221
▁Canada	-9.38267
▁Ali	-9.38609
▁man	-9.38804
▁Voi	-9.38841
▁Age	-9.39001
▁El	-9.39117
▁municipal	-9.39262
▁terms	-9.39309
▁award	-9.39323
ile	-9.3937
▁pick	-9.3952
▁pi	-9.39651
ray	-9.39781
▁light	-9.3981
▁active	-9.39883
▁cars	-9.39887
▁bus	-9.39921
▁Matt	-9.39985
▁Sri	-9.40085
▁playe	-9.4018
▁En	-9.40501
▁Tu	-9.40506
▁reach	-9.40547
▁bi	-9.40877
▁Region	-9.41051
▁referen	-9.41171
▁Ke	-9.41393
▁occasional	-9.41694
▁9	-9.42045
▁Mr	-9.42074
▁Tir	-9.42077
side	-9.42082
▁Caree	-9.42275
▁involv	-9.42576
▁banks	-9.42705
▁Ol	-9.42772
▁weeks	-9.42795
▁Ka	-9.42842
▁po	-9.42871
▁Car	-9.42989
▁Ge	-9.4359
echnolog	-9.43687
lines	-9.43704
continued	-9.43763
▁locate	-9.4381
▁Arts	-9.43844
ough	-9.43884
▁definitions	-9.4396
▁fit	-9.44628
▁1991	-9.44657
egislation	-9.44676
contains	-9.44848
with	-9.45025
75	-9.45029
▁relate	-9.45134
▁Ad	-9.45387
ark	-9.4554
orough	-9.45788
▁Star	-9.45967
junct	-9.4604
▁2002	-9.46063
▁ei	-9.46083
istic	-9.46451
que	-9.4655
▁edi	-9.46726
hose	-9.46771
goals	-9.47165
▁150	-9.47301
gives	-9.47393
▁Hend	-9.47444
rie	-9.47528
year	-9.47616
▁Music	-9.47654
town	-9.47675
ig	-9.4774
now	-9.48023
▁1960	-9.48056
▁sur	-9.48088
▁solv	-9.481
well	-9.48188
▁Dan	-9.48216
▁Ca	-9.48261
▁distribut	-9.48336
▁Ve	-9.48341
ney	-9.48524
▁Play	-9.48597
▁club	-9.48832
▁Leo	-9.48926
▁tree	-9.48987
nce	-9.4906
lly	-9.49237
▁friend	-9.49394
▁span	-9.49414
all	-9.49531
▁conc	-9.49628
evel	-9.4971
▁Christi	-9.49896
8,	-9.50091
▁prohibit	-9.50164
▁kin	-9.50276
▁influence	-9.50306
li	-9.50311
▁Chris	-9.50324
▁real	-9.50376
▁contract	-9.50451
ecurity	-9.5066
▁drop	-9.50675
▁Math	-9.50731
▁Paul	-9.50765
some	-9.5077
ue	-9.50773
▁transport	-9.50773
▁California	-9.50811
▁Kültepe	-9.50811
▁Matematica	-9.50811
▁Memorial	-9.50811
▁Nazca	-9.50811
▁Wiseman	-9.50811
▁Yorkshire	-9.50811
▁distinguish	-9.50811
▁description	-9.50811
▁Knapp	-9.50811
▁Ordway	-9.50811
▁computer	-9.50811
▁differences	-9.50811
▁Province	-9.50812
▁activities	-9.50813
▁Henry	-9.50814
▁Championship	-9.50817
▁varieties	-9.50819
▁freedom	-9.50819
▁business	-9.50819
▁politician	-9.5082
▁sentence	-9.50822
▁center	-9.50824
▁Palace	-9.50828
▁situation	-9.50828
▁range	-9.50829
▁Linh	-9.5083
▁Mathematical	-9.5083
▁Academy	-9.5083
▁Philip	-9.5083
▁Observer	-9.50835
▁material	-9.50835
▁opposition	-9.50839
▁communion	-9.50849
▁Vita	-9.50856
▁earlier	-9.50859
▁colony	-9.50867
▁Youth	-9.5087
▁famous	-9.50873
▁Dis	-9.50873
▁river	-9.50874
▁studies	-9.50886
▁Rome	-9.5089
▁flight	-9.50894
▁Hill	-9.50903
▁broke	-9.50906
▁Further	-9.5091
▁data	-9.50914
▁missing	-9.50924
▁movement	-9.50926
ell	-9.50935
▁homophon	-9.50981
▁response	-9.50997
▁purposes	-9.50999
▁decide	-9.50999
▁Centre	-9.51041
▁Shia	-9.51047
▁director	-9.51048
▁status	-9.51054
▁strongly	-9.51058
▁officer	-9.51058
▁Social	-9.51058
▁movie	-9.51088
▁ancient	-9.51095
▁br	-9.51128
▁statue	-9.5113
▁added	-9.51132
▁schedule	-9.51138
▁confirm	-9.51146
▁Moscow	-9.51182
▁Finnegan	-9.51185
▁independence	-9.51186
▁Lawrence	-9.51186
▁becom	-9.51195
▁league	-9.51197
▁lack	-9.51198
▁God	-9.51205
▁Neša	-9.5121
▁BBC	-9.51212
▁followed	-9.51259
▁Mon	-9.51262
▁size	-9.51303
▁collection	-9.51352
ilea	-9.5139
▁dry	-9.514
▁shot	-9.51412
▁Law	-9.51423
▁With	-9.51448
▁online	-9.51484
▁designed	-9.51493
▁Corp	-9.51523
▁vehicles	-9.51598
▁peak	-9.51617
▁li	-9.51635
▁Kaneš	-9.51716
▁eight	-9.51735
▁green	-9.51748
▁translat	-9.51755
▁III	-9.51785
▁Ren	-9.51826
▁passengers	-9.51905
▁clu	-9.51995
▁Dur	-9.52023
▁values	-9.52038
▁propos	-9.52054
▁free	-9.52059
▁listed	-9.52076
▁involved	-9.52107
▁cultural	-9.52127
▁fully	-9.52164
▁incorporate	-9.52181
▁bass	-9.52219
▁killed	-9.52219
▁civil	-9.52283
▁scenes	-9.52516
▁Fine	-9.52522
line	-9.52523
▁elections	-9.52548
▁Br	-9.52596
zion	-9.52647
▁reference	-9.52691
ice	-9.52758
▁courts	-9.52865
▁numer	-9.52934
▁protect	-9.52973
tial	-9.52974
▁production	-9.52991
work	-9.52997
▁Islands	-9.53111
▁inside	-9.53176
▁mid	-9.53305
ram	-9.53412
▁vary	-9.53615
▁effects	-9.53654
▁practic	-9.53754
▁publications	-9.53938
▁spaces	-9.54047
▁Explorer	-9.54296
▁working	-9.54518
▁papers	-9.54653
▁And	-9.54909
▁levels	-9.54968
▁cu	-9.55022
▁star	-9.55054
circa	-9.55146
sk	-9.55188
recording	-9.55199
▁ever	-9.55206
▁Pri	-9.55289
op	-9.55804
ogistics	-9.55901
▁approach	-9.55938
bus	-9.55977
▁Ta	-9.56007
▁le	-9.56018
ade	-9.56082
▁Charle	-9.56227
▁special	-9.56375
hat	-9.56711
lan	-9.56826
▁serve	-9.56978
He	-9.57146
▁indicators	-9.57155
▁News	-9.57375
▁cases	-9.57666
▁origin	-9.57973
▁Tom	-9.58066
▁takes	-9.5819
▁Har	-9.58216
orn	-9.58251
▁becomes	-9.58296
set	-9.58415
ental	-9.58472
turned	-9.58534
dale	-9.58601
▁run	-9.58893
▁areas	-9.58922
▁anti	-9.58941
▁branch	-9.58967
▁ho	-9.58994
ding	-9.59112
▁operate	-9.59161
▁Mass	-9.59461
lit	-9.59566
ept	-9.59695
went	-9.59774
ach	-9.599
▁pe	-9.60289
▁Here	-9.60315
▁40	-9.60367
▁28	-9.60481
erry	-9.60515
▁air	-9.60702
▁35	-9.60752
▁am	-9.60789
▁compile	-9.60985
gree	-9.61102
eminar	-9.61144
▁2,	-9.61187
ire	-9.61255
▁Marc	-9.61361
▁reported	-9.6148
▁perform	-9.61572
finished	-9.61627
▁profess	-9.61738
▁Te	-9.61753
▁honor	-9.61765
down	-9.61789
ll	-9.61839
time	-9.61988
▁(1	-9.62274
▁Count	-9.62455
3-	-9.62468
which	-9.62532
▁Pr	-9.62593
ze	-9.62729
ction	-9.62958
▁Office	-9.62999
ang	-9.63212
back	-9.63222
ot	-9.63315
▁Su	-9.6338
pass	-9.63428
cent	-9.63451
New	-9.63453
ler	-9.63519
▁Sta	-9.63601
▁semi	-9.63635
ames	-9.63834
za	-9.6389
GhaPE	-9.63915
ground	-9.63924
▁unit	-9.64018
ny	-9.64023
PG	-9.64032
After	-9.64032
▁Whi	-9.64118
▁vo	-9.64367
▁lo	-9.6474
espec	-9.64949
▁notabl	-9.65045
▁replace	-9.651
▁Ne	-9.65143
▁constitution	-9.65201
▁metal	-9.65226
ially	-9.65338
▁Anabaptist	-9.65338
▁compete	-9.65352
▁Queen	-9.65367
▁Lord	-9.65409
nounced	-9.6542
▁scene	-9.65515
▁route	-9.65643
▁symbol	-9.65659
▁condition	-9.65708
▁Cree	-9.65724
▁Blu	-9.65769
▁MP	-9.65812
▁Book	-9.65881
lets	-9.65937
▁court	-9.65954
▁student	-9.65976
▁So	-9.66052
▁Work	-9.66144
▁kill	-9.66211
terrorist	-9.66212
▁election	-9.66356
ster	-9.66444
den	-9.66461
▁initial	-9.66524
▁thing	-9.66621
word	-9.66677
▁require	-9.66696
▁cable	-9.66714
▁Pu	-9.66848
▁ac	-9.6685
▁Ministr	-9.6689
▁Russia	-9.66901
▁class	-9.66949
ö	-9.67169
▁Tim	-9.67185
▁2001)	-9.67212
▁Premi	-9.67367
▁direct	-9.67368
▁Peace	-9.67434
▁Japan	-9.6747
▁journal	-9.67476
ʼ	-9.67477
▁£	-9.67477
а	-9.67478
▁Bernalillo	-9.67478
▁Egypt	-9.67478
▁George	-9.67478
▁Kogalym	-9.67478
▁Melbourne	-9.67478
▁Montparnasse	-9.67478
▁Oliver	-9.67478
▁Peninsula	-9.67478
▁Scotland	-9.67478
▁Switzerland	-9.67478
▁Ukraine	-9.67478
▁helicopter	-9.67478
▁independent	-9.67478
▁suffix	-9.67478
Christendom	-9.67478
▁Hindu	-9.67478
▁Tunnel	-9.67478
▁incident	-9.67478
▁Swed	-9.67478
▁Culture	-9.67478
▁account	-9.67478
▁theatrical	-9.67478
▁District	-9.67479
▁Denmark	-9.67479
▁Swiss	-9.67479
▁mentioned	-9.67479
▁question	-9.67479
Neill	-9.6748
▁Metrojet	-9.6748
▁problem	-9.6748
▁Spain	-9.6748
▁violence	-9.67481
▁Estonia	-9.67482
▁capital	-9.67483
▁Seattle	-9.67483
▁mountain	-9.67484
▁Railroad	-9.67484
▁Resident	-9.67486
▁Futsal	-9.67486
▁Carmichael	-9.67486
▁Roger	-9.67486
▁reprint	-9.67486
ville	-9.67487
▁Lucy	-9.67487
▁Foundation	-9.67488
▁System	-9.67488
▁nationwide	-9.67489
▁Gallery	-9.67489
▁regulation	-9.6749
▁subsequent	-9.6749
▁Belgian	-9.67491
▁treatment	-9.67492
▁triangle	-9.67493
▁context	-9.67498
▁Duke	-9.675
ów	-9.675
▁ACT	-9.67501
▁policies	-9.67504
▁faith	-9.67505
▁Coast	-9.67505
▁denote	-9.67507
▁anagrammed	-9.67508
▁Open	-9.67508
▁Analysis	-9.6751
▁1989	-9.67511
▁Emily	-9.67512
▁organization	-9.67517
▁BCE	-9.67518
▁Fox	-9.67519
▁1930	-9.67525
▁invest	-9.67527
▁oars	-9.67535
▁4.0	-9.67535
▁infrastructure	-9.67548
▁regional	-9.67549
▁Runner	-9.67554
▁Jim	-9.67566
▁living	-9.67567
▁appointed	-9.67567
▁medal	-9.6757
▁Association	-9.67579
▁Thai	-9.6758
▁India	-9.67584
▁collaboration	-9.6759
▁brand	-9.67604
▁trial	-9.67621
ou	-9.67623
▁Bob	-9.67633
▁Cox	-9.67647
▁slight	-9.67659
▁Common	-9.67659
▁connect	-9.67662
▁Long	-9.67673
▁appeal	-9.67674
▁Artist	-9.67676
▁instance	-9.67681
SGE	-9.67682
▁1895	-9.67684
▁Wh	-9.67684
▁Olympics	-9.67693
▁devices	-9.67694
▁Korean	-9.67695
▁cities	-9.67704
▁path	-9.67738
▁agency	-9.6779
▁lost	-9.67796
▁information	-9.67822
can	-9.67837
▁1968	-9.67856
▁tend	-9.67867
▁height	-9.67885
▁Māori	-9.6791
▁Labour	-9.67914
▁Ireland	-9.67914
▁Dutch	-9.67915
▁denomination	-9.67915
▁Norwegian	-9.67916
▁monument	-9.67917
▁barred	-9.67923
▁Dz	-9.67927
▁completed	-9.6794
▁percent	-9.67957
▁how	-9.67961
▁sp	-9.67977
▁lanes	-9.68
yong	-9.68018
▁(6)	-9.68026
▁itself	-9.68031
▁above	-9.68032
▁driver	-9.68051
▁combined	-9.68053
▁killing	-9.6808
ay	-9.68086
▁grand	-9.681
▁administrative	-9.68144
▁companies	-9.68178
▁difficulty	-9.68215
▁Vi	-9.6825
▁inhabited	-9.68259
▁Phil	-9.68265
▁directed	-9.68319
▁hearing	-9.68326
▁Miszc	-9.68332
▁rail	-9.68341
▁Mc	-9.68359
▁Games	-9.6837
▁idea	-9.68404
ons	-9.68411
▁twel	-9.68411
val	-9.68419
etc	-9.68448
▁heart	-9.6849
▁abbreviations	-9.68513
▁Albanian	-9.68519
▁Cook	-9.68582
▁First	-9.68602
▁divide	-9.68669
▁produced	-9.68672
▁white	-9.68694
▁reasons	-9.6878
▁follows	-9.68874
▁port	-9.68896
▁done	-9.68933
ov	-9.6894
▁mother	-9.68999
▁me	-9.69007
▁evening	-9.69046
▁care	-9.69072
▁checked	-9.69079
E	-9.69132
ief	-9.69133
▁survive	-9.69137
▁beliefs	-9.69145
▁plants	-9.69161
▁Thus	-9.69168
▁grounds	-9.69191
planet	-9.69267
▁MPs	-9.69405
▁Way	-9.6943
▁credit	-9.69491
▁cables	-9.69517
▁Books	-9.69519
▁continue	-9.69676
▁mor	-9.6971
▁1974	-9.69827
▁turn	-9.69945
▁cor	-9.70002
▁ru	-9.7006
commerc	-9.70208
5,	-9.70266
fter	-9.70315
▁tell	-9.70336
▁constitutional	-9.70339
▁forest	-9.70344
rick	-9.70354
raya	-9.70507
▁(2	-9.70545
▁2001).	-9.7056
oline	-9.70576
▁Y	-9.7077
▁today	-9.70777
PL	-9.70801
▁Don	-9.70924
▁field	-9.71058
▁ch	-9.71091
stone	-9.71125
▁ship	-9.71199
mo	-9.71333
▁coverings	-9.71483
▁Greg	-9.7149
▁attribute	-9.71492
ference	-9.71672
servati	-9.7174
ank	-9.71844
▁Par	-9.72027
▁Sand	-9.72044
▁restrict	-9.72072
▁solutions	-9.72099
▁mill	-9.723
hu	-9.72306
▁Inc	-9.7234
20	-9.72453
nothing	-9.72533
3.	-9.72563
gave	-9.72661
ins	-9.7268
ors	-9.72704
lor	-9.72728
▁Opera	-9.7276
▁Dep	-9.72763
fe	-9.72821
▁gain	-9.7296
▁US	-9.72989
▁featur	-9.7301
OR	-9.73106
▁myth	-9.73224
hile	-9.73271
▁My	-9.73366
▁simpl	-9.73438
▁too	-9.73459
iya	-9.73477
▁days	-9.735
rian	-9.73614
▁sh	-9.73767
▁suspende	-9.73947
▁Gree	-9.7396
▁held	-9.7405
Notes	-9.74213
▁mass	-9.74276
alth	-9.74381
ues	-9.74404
▁Dea	-9.74408
berg	-9.74468
▁my	-9.74473
▁chronolog	-9.74611
use	-9.74635
▁card	-9.74697
▁Man	-9.74699
▁fact	-9.74709
▁games	-9.74914
reach	-9.74931
▁beca	-9.74977
▁rights	-9.7498
▁2004.	-9.75187
▁dropp	-9.75281
ust	-9.75356
no	-9.75496
zu	-9.75785
▁indi	-9.75966
▁burqas	-9.76057
▁Tor	-9.76083
ular	-9.76095
▁conta	-9.76123
ad	-9.76182
▁Fin	-9.7619
▁200	-9.76196
ups	-9.76513
▁2006.	-9.76775
▁ha	-9.76966
ola	-9.76981
▁ga	-9.77094
▁Gos	-9.77329
▁1971	-9.77367
▁Note	-9.77405
▁2021.	-9.77428
▁indicat	-9.77497
ac	-9.77568
▁Ed	-9.77655
over	-9.77717
▁Qui	-9.7793
sco	-9.77974
ked	-9.78084
▁2014.	-9.78096
▁Somer	-9.78243
ami	-9.78293
▁Gi	-9.78295
▁propert	-9.78337
▁Bad	-9.78603
▁graduate	-9.78628
▁2007.	-9.78746
Li	-9.78804
▁pa	-9.79072
▁locat	-9.79095
▁mile	-9.79274
law	-9.79312
ub	-9.79334
▁1993	-9.7944
▁Constitution	-9.79749
ogram	-9.7982
ollowing	-9.79944
tes	-9.8021
▁design	-9.80253
bi	-9.80415
ham	-9.80467
olic	-9.8047
uty	-9.80486
▁schisms	-9.80487
0,000	-9.80566
▁fi	-9.80708
▁del	-9.80732
▁Cal	-9.8077
nia	-9.81021
ling	-9.81071
▁1987	-9.81091
▁Pe	-9.81279
▁Pre	-9.81753
rug	-9.81776
}	-9.8178
media	-9.81815
-16	-9.81858
▁Xi	-9.81906
▁)	-9.8194
▁Solv	-9.82029
wish	-9.82128
▁mission	-9.82213
▁bann	-9.82255
les	-9.82502
lin	-9.82566
▁hard	-9.82647
▁Bibl	-9.8285
▁plac	-9.82863
edited	-9.83101
wo	-9.83216
▁tradition	-9.83426
▁cl	-9.83468
American	-9.83563
ese	-9.83642
place	-9.83656
about	-9.83737
English	-9.83771
ime	-9.83784
grid	-9.83959
city	-9.84098
For	-9.84136
").	-9.84192
▁capa	-9.84247
due	-9.84264
It	-9.84315
▁hi	-9.84353
▁step	-9.8443
▁(4	-9.84477
▁Arch	-9.84498
]"	-9.84526
iddle	-9.84651
▁29	-9.84791
ral	-9.84993
▁whale	-9.85184
▁Caliph	-9.85189
▁label	-9.85213
▁convention	-9.85241
▁minute	-9.85321
ealth	-9.85325
displays	-9.85346
▁division	-9.85349
lace	-9.85403
▁belief	-9.8548
member	-9.85481
▁comic	-9.85531
▁character	-9.85535
▁eye	-9.85555
sands	-9.85612
▁text	-9.85747
There	-9.8582
ike	-9.85857
▁setting	-9.85982
▁move	-9.861
▁teacher	-9.86104
▁plant	-9.8623
ictory	-9.8634
▁variation	-9.86504
▁IM	-9.86589
▁tr	-9.86674
su	-9.86697
mi	-9.86717
▁Gr	-9.86728
▁Mu	-9.86784
▁report	-9.86791
onstruction	-9.86829
▁build	-9.86901
▁Lo	-9.86924
rew	-9.86987
▁bas	-9.86994
respond	-9.87146
▁combin	-9.87191
pproximat	-9.87205
▁min	-9.87232
▁Schism	-9.87234
▁Portug	-9.87297
ifolium	-9.87413
▁except	-9.87427
▁Prim	-9.8743
name	-9.87433
▁Belarus	-9.87453
▁Evangeli	-9.87474
า	-9.87475
ɔ	-9.87477
Württemberg	-9.87478
emperature	-9.87478
ː	-9.87478
”	-9.87478
▁Associate	-9.87478
▁Beirut	-9.87478
▁Bishop	-9.87478
▁Committee	-9.87478
▁Eleanor	-9.87478
▁Georgia	-9.87478
▁Judaism	-9.87478
▁Library	-9.87478
▁Macnutt	-9.87478
▁Maximillian	-9.87478
▁Nazionale	-9.87478
▁Oklahoma	-9.87478
▁Pennsylvania	-9.87478
▁Rathvon	-9.87478
▁Simpson	-9.87478
▁adaptation	-9.87478
▁amount	-9.87478
▁escape	-9.87478
▁husband	-9.87478
▁orchestra	-9.87478
▁retirement	-9.87478
▁significant	-9.87478
▁subsidiary	-9.87478
dimension	-9.87478
à	-9.87478
▁Bulgaria	-9.87478
▁Gordon	-9.87478
▁calcul	-9.87478
▁identity	-9.87478
▁Festival	-9.87478
▁Anitta	-9.87478
▁twenty	-9.87478
▁“	-9.87478
▁Desmond	-9.87478
▁Joseph	-9.87478
▁Kansas	-9.87478
▁discount	-9.87478
▁qualifying	-9.87478
ル	-9.87479
▁Griszc	-9.87479
▁Spanish	-9.87479
▁comprise	-9.8748
▁Bowman	-9.8748
▁Flower	-9.87481
▁communities	-9.87482
▁request	-9.87483
▁Princess	-9.87483
▁staff	-9.87484
▁(2003)	-9.87484
Cambridge	-9.87484
▁centuries	-9.87485
▁discrimination	-9.87485
▁Fellowship	-9.87486
▁military	-9.87486
▁diameter	-9.87487
▁Airport	-9.87487
▁Doug	-9.87487
▁neutrality	-9.87487
▁henchman	-9.87491
▁split	-9.87491
▁Besides	-9.87492
▁certificate	-9.87493
▁television	-9.87493
▁navy	-9.87493
▁Assur	-9.87496
▁composition	-9.87496
▁wife	-9.87496
▁Monday	-9.875
▁Victory	-9.87502
▁strong	-9.87502
▁stunt	-9.87502
▁content	-9.87505
▁Chamber	-9.87507
▁spread	-9.87508
▁deep	-9.8751
▁Northwest	-9.8751
▁settlement	-9.87511
▁equations	-9.87512
▁secularism	-9.8752
▁Administration	-9.87524
▁argument	-9.87529
▁advocate	-9.87531
▁Six	-9.87536
▁Sister	-9.87544
▁connection	-9.87552
▁schoolhouse	-9.87554
▁treated	-9.87561
▁Records	-9.87565
▁Logistics	-9.87567
▁ferry	-9.87568
▁task	-9.87571
▁choos	-9.87571
▁county	-9.87575
▁abandoned	-9.87577
▁Sweden	-9.87596
▁indication	-9.87602
▁Akan	-9.87611
▁nM	-9.87612
▁Back	-9.87623
▁therefore	-9.87626
▁Pier	-9.87628
▁Love	-9.87633
▁Order	-9.87638
▁Bird	-9.87639
▁financial	-9.87642
▁1886	-9.87643
▁location	-9.87644
▁specifically	-9.87651
▁longest	-9.8766
▁industry	-9.87678
▁investigation	-9.87681
▁Prote	-9.87685
▁energy	-9.87687
▁screen	-9.87689
▁failed	-9.87705
▁feeling	-9.87719
▁Post	-9.87726
▁facility	-9.87729
▁Frag	-9.87742
▁pylons	-9.87744
▁"&	-9.87746
▁destroyed	-9.87747
▁maintained	-9.87757
▁Indian	-9.87772
▁Puzzles	-9.87776
▁1975	-9.87809
▁Ib	-9.87825
irls	-9.8783
▁seeds	-9.87832
▁remove	-9.87862
▁1820	-9.87874
▁Sports	-9.87905
▁processes	-9.87913
▁Force	-9.8792
rising	-9.87928
▁basis	-9.87945
▁opening	-9.87957
▁understand	-9.87957
ents	-9.87975
▁Glob	-9.87984
▁mask	-9.87985
▁Ra	-9.88
▁goes	-9.88002
▁extreme	-9.88003
▁implement	-9.88005
▁merchant	-9.88007
▁Flemish	-9.88007
▁Victoria	-9.88008
▁BEE	-9.88008
▁Education	-9.8801
▁1973	-9.88011
▁Constantinople	-9.88013
▁drama	-9.88046
▁nine	-9.8805
▁increasing	-9.88068
▁immigration	-9.88069
▁Later	-9.88158
▁applications	-9.8819
▁image	-9.88195
▁Affairs	-9.88195
▁prominent	-9.88227
▁How	-9.88231
03	-9.88231
▁talk	-9.88242
influenced	-9.88262
▁43	-9.88299
▁trip	-9.88314
▁poll	-9.88323
▁Bass	-9.88337
▁speed	-9.88345
▁Bal	-9.88354
▁product	-9.88376
▁thou	-9.88417
▁Mutt	-9.88425
▁natural	-9.88439
▁Chal	-9.8849
▁retain	-9.88564
▁roman	-9.88569
rani	-9.88586
▁nose	-9.88587
idden	-9.88595
▁extensi	-9.88613
▁communication	-9.88627
▁Mag	-9.88633
▁hospitals	-9.88642
ince	-9.88695
▁heard	-9.8879
▁Roy	-9.88856
!"	-9.88861
▁Word	-9.88906
▁Bay	-9.88911
net	-9.8892
▁love	-9.88924
▁passing	-9.88936
▁seem	-9.88939
▁markets	-9.88943
▁someone	-9.88996
▁pseudonyms	-9.89099
▁1999.	-9.89124
▁Paol	-9.89178
▁employed	-9.89285
hill	-9.89411
▁actress	-9.89433
▁Hunt	-9.89449
ments	-9.89634
rain	-9.89669
▁middle	-9.89696
▁hear	-9.89854
▁ground	-9.89898
▁appli	-9.89908
▁Col	-9.90101
mitted	-9.9012
▁solve	-9.90135
▁...	-9.90163
▁(19	-9.90202
▁Mount	-9.90236
▁mix	-9.90244
▁visible	-9.90248
ner	-9.90281
▁Variet	-9.90308
▁Anal	-9.90339
▁Kwak	-9.90348
▁grant	-9.90369
erson	-9.90397
▁Sy	-9.90401
jet	-9.9045
pisode	-9.90469
ootball	-9.90507
▁describe	-9.90608
▁extract	-9.90661
7.	-9.90673
▁Jos	-9.9073
▁1829	-9.90746
ports	-9.90783
▁Mont	-9.90839
ngeri	-9.9084
▁towns	-9.90853
alled	-9.90878
opical	-9.91057
ired	-9.91167
▁test	-9.91337
right	-9.91353
▁Em	-9.91394
▁Ja	-9.91413
▁183	-9.91437
▁construct	-9.91444
ea	-9.91462
▁Len	-9.91475
▁ships	-9.91544
▁projects	-9.91635
sh	-9.91693
ša	-9.91725
▁Station	-9.9174
pped	-9.91813
ani	-9.91949
ably	-9.92097
▁centre	-9.92328
shed	-9.92706
itary	-9.92748
▁chart	-9.9296
but	-9.9299
tribution	-9.93046
▁32	-9.93077
pm	-9.93342
▁round	-9.93581
▁Pass	-9.93619
▁tolls	-9.93623
▁squa	-9.93927
25	-9.93988
▁Bu	-9.94078
als	-9.94095
within	-9.94197
▁Digit	-9.94274
▁affi	-9.94281
elli	-9.94379
▁Centur	-9.94446
▁Cl	-9.94667
aint	-9.94696
une	-9.94848
▁Sol	-9.95108
▁Mac	-9.95229
▁records	-9.95367
▁styles	-9.95372
key	-9.95493
▁versions	-9.95632
ory	-9.9565
▁publishe	-9.95693
plicit	-9.95704
ries	-9.95741
aunch	-9.95797
anish	-9.95817
ev	-9.95951
▁events	-9.9602
ft	-9.96055
dy	-9.96105
ond	-9.96152
▁produce	-9.96351
▁Mor	-9.9643
nearly	-9.96437
ye	-9.96575
ecause	-9.96647
▁You	-9.96758
aw	-9.96768
▁kilo	-9.97078
runs	-9.97137
gar	-9.97314
ative	-9.97327
ised	-9.97332
num	-9.97363
polar	-9.9759
▁wor	-9.97602
▁establish	-9.97615
▁Fr	-9.97695
ula	-9.98069
▁issues	-9.98099
▁age	-9.98126
▁Bur	-9.98204
ow	-9.98232
pe	-9.98375
▁Der	-9.98542
26	-9.9855
spit	-9.98551
ji	-9.98656
▁Eco	-9.98715
▁involve	-9.98761
▁filming	-9.98893
▁60	-9.98934
▁Was	-9.99233
▁ways	-9.99254
▁Eu	-9.99303
come	-9.99434
bra	-9.99535
educated	-9.99568
▁2016.	-9.9961
ography	-9.99774
cut	-9.99907
pper	-9.99961
▁Qu	-10.0001
int	-10.0018
▁value	-10.0047
lph	-10.0063
culture	-10.011
▁Wor	-10.014
▁purchase	-10.0144
▁publish	-10.0154
LE	-10.0158
▁summ	-10.0161
tt	-10.0184
X	-10.0194
anime	-10.0218
▁Person	-10.0221
▁Kar	-10.0221
im	-10.0237
▁Fort	-10.0238
▁Guide	-10.024
▁Christ	-10.0245
ame	-10.0246
▁Stud	-10.0255
▁2013)	-10.0257
writing	-10.0267
▁Hi	-10.0275
bu	-10.028
00	-10.0285
anum	-10.0295
ini	-10.0297
ita	-10.0297
isi	-10.0314
▁Va	-10.0314
du	-10.0327
ier	-10.0329
▁add	-10.0335
▁force	-10.0345
pa	-10.0352
lub	-10.0354
ours	-10.0355
iss	-10.0363
lition	-10.0383
head	-10.0398
ack	-10.0406
▁cause	-10.0412
▁desp	-10.0425
cryptic	-10.044
cedon	-10.0446
▁(18	-10.0446
▁vol	-10.0455
cial	-10.0489
500	-10.049
ware	-10.05
▁12,	-10.052
6.	-10.0536
men	-10.0552
ual	-10.0558
▁Banc	-10.0564
▁books	-10.057
ven	-10.0573
esult	-10.0591
tyle	-10.0593
▁j	-10.0595
wood	-10.0603
gene	-10.0613
▁Low	-10.0619
▁Dr	-10.0624
ID	-10.0644
AM	-10.065
▁Cas	-10.0667
▁share	-10.0682
▁mini	-10.0687
mentary	-10.0706
▁Offic	-10.0709
AL	-10.0717
my	-10.0717
utter	-10.0732
▁Sen	-10.0734
iv	-10.0739
▁(7	-10.0773
▁defin	-10.0804
controlle	-10.0835
pier	-10.0835
▁Wire	-10.0836
▁thick	-10.0842
100	-10.0854
▁prev	-10.086
▁examples	-10.0866
▁Am	-10.0876
David	-10.0879
▁195	-10.088
European	-10.0881
Some	-10.0883
leader	-10.0883
production	-10.0885
Canada	-10.0887
Pacific	-10.0888
Lao	-10.0894
72	-10.0899
▁follow	-10.0902
systems	-10.0902
visible	-10.0904
based	-10.0912
(6	-10.0917
view	-10.092
ɛ	-10.0928
▁critic	-10.0928
person	-10.0929
rete	-10.0957
cycle	-10.0959
ae	-10.0969
/.	-10.0975
▁Ham	-10.0997
▁extra	-10.1003
▁Language	-10.1012
▁conflict	-10.1012
▁Guitar	-10.1012
▁object	-10.1013
vious	-10.1019
vo	-10.1023
▁table	-10.1026
know	-10.1029
▁propose	-10.1032
ase	-10.1035
▁suggest	-10.1039
▁function	-10.104
▁pseudonym	-10.1044
▁reason	-10.1049
ense	-10.1049
▁passenger	-10.1049
▁guitar	-10.105
q	-10.1052
itch	-10.1074
▁1995	-10.1087
▁market	-10.1091
▁flow	-10.1094
▁review	-10.1103
▁Science	-10.1115
▁open	-10.1118
▁Clue	-10.113
ttack	-10.1132
▁Kh	-10.1138
ap	-10.1141
ph	-10.1151
ka	-10.1154
gie	-10.1154
incorporate	-10.1157
▁document	-10.1164
▁develop	-10.1166
▁noun	-10.1182
rous	-10.1186
▁(20	-10.1188
▁Si	-10.119
▁Dar	-10.119
▁Moldov	-10.1197
▁score	-10.1206
è	-10.1215
een	-10.1215
▁Anti	-10.1223
▁Commission	-10.1224
▁Differen	-10.1231
▁meet	-10.1237
avia	-10.1239
▁188	-10.1243
ture	-10.1244
▁prop	-10.1244
▁Stephen	-10.1245
comes	-10.1247
ก	-10.1248
å	-10.1248
▁Fellow	-10.1248
▁Hijab	-10.1248
▁serotonin	-10.1248
ë	-10.1248
ı	-10.1248
ż	-10.1248
▁Achillinus	-10.1248
▁Afghanistan	-10.1248
▁Alessandro	-10.1248
▁Anatolia	-10.1248
▁Avenue	-10.1248
▁Belfast	-10.1248
▁Brixton	-10.1248
▁Capitol	-10.1248
▁Citizen	-10.1248
▁Cornwall	-10.1248
▁Dacorogna	-10.1248
▁Department	-10.1248
▁Description	-10.1248
▁Jirga	-10.1248
▁Mexico	-10.1248
▁Michigan	-10.1248
▁Perspective	-10.1248
▁Picciotto	-10.1248
▁Reckitt	-10.1248
▁Rosario	-10.1248
▁Spectator	-10.1248
▁Woodlawn	-10.1248
▁advantage	-10.1248
▁festivals	-10.1248
▁headdress	-10.1248
▁pronunciation	-10.1248
▁reuptake	-10.1248
▁struggle	-10.1248
▁temple	-10.1248
▁unconventional	-10.1248
Mephisto	-10.1248
▁Atatürk	-10.1248
▁Custom	-10.1248
▁Czech	-10.1248
▁Kharijite	-10.1248
▁Roeper	-10.1248
▁Tuesday	-10.1248
▁evidence	-10.1248
▁method	-10.1248
▁picture	-10.1248
▁signatures	-10.1248
▁Constantin	-10.1248
▁Contents	-10.1248
▁Padua	-10.1248
▁Standard	-10.1248
▁Tasmania	-10.1248
▁cuisine	-10.1248
▁impossible	-10.1248
Growth	-10.1248
▁demonstrat	-10.1248
▁Florence	-10.1248
▁random	-10.1248
リ	-10.1248
▁beheadment	-10.1248
▁execut	-10.1248
▁expertise	-10.1248
▁fashion	-10.1248
▁lectur	-10.1248
▁personnel	-10.1248
▁sermon	-10.1248
▁Prague	-10.1248
▁Reserve	-10.1248
▁Corporation	-10.1248
▁Friday	-10.1248
▁guide	-10.1248
▁Protestant	-10.1248
▁subunit	-10.1248
▁Nasher	-10.1248
statistics	-10.1248
▁Grove	-10.1248
▁estimate	-10.1248
▁Kolavia	-10.1248
▁Nelson	-10.1248
▁Contemporary	-10.1248
▁literature	-10.1248
▁Democratic	-10.1248
▁science	-10.1248
▁Machine	-10.1248
▁Lighthouse	-10.1248
▁desert	-10.1248
▁measure	-10.1248
▁reflect	-10.1248
▁vocabulary	-10.1248
▁servants	-10.1248
▁trigger	-10.1248
▁injuries	-10.1248
▁Listener	-10.1248
▁Arthur	-10.1248
▁Princeton	-10.1248
nós	-10.1248
▁Second	-10.1248
▁(2005)	-10.1248
▁preamp	-10.1248
▁Democrats	-10.1248
▁pandemic	-10.1248
▁teammate	-10.1248
▁normally	-10.1248
▁Travel	-10.1248
▁brief	-10.1248
▁private	-10.1248
▁length	-10.1248
▁lemon	-10.1248
PCBU	-10.1248
▁Belgium	-10.1248
▁Woodhouse	-10.1248
▁interview	-10.1249
▁Regular	-10.1249
▁Lagoon	-10.1249
▁domain	-10.1249
▁Morgan	-10.1249
▁Hockey	-10.1249
▁Square	-10.1249
▁Martin	-10.1249
▁Frederick	-10.1249
GGT	-10.1249
▁prize	-10.1249
▁1929	-10.1249
▁Accra	-10.1249
▁Imam	-10.1249
▁Steps	-10.1249
▁rotation	-10.1249
▁deliver	-10.1249
▁studio	-10.1249
▁729	-10.1249
▁fellow	-10.1249
▁recommendation	-10.1249
▁impact	-10.125
▁department	-10.125
▁revolve	-10.125
▁(2011)	-10.125
▁jump	-10.125
▁rugby	-10.125
▁Chapel	-10.125
▁Arabic	-10.125
▁1913	-10.125
▁Buddhism	-10.125
▁contrast	-10.125
▁phenomenon	-10.125
▁Winter	-10.125
▁Metro	-10.1251
▁entry	-10.1251
▁camp	-10.1251
▁doctrine	-10.1251
▁Network	-10.1251
▁carriage	-10.1251
▁Harbor	-10.1251
▁facilit	-10.1251
▁ste	-10.1251
▁safety	-10.1251
▁chapel	-10.1251
▁Ohio	-10.1251
▁Bonn	-10.1252
▁Palmer	-10.1252
▁Clark	-10.1252
4)	-10.1253
▁paid	-10.1253
▁vertices	-10.1253
▁1984	-10.1253
▁Frank	-10.1253
▁Residency	-10.1253
▁ensure	-10.1253
▁performance	-10.1253
▁neck	-10.1253
▁progress	-10.1253
▁brother	-10.1254
▁separation	-10.1254
▁campus	-10.1254
▁respectively	-10.1254
▁reform	-10.1254
▁passage	-10.1254
▁Kamen	-10.1254
▁money	-10.1254
AMS	-10.1254
▁Father	-10.1255
▁Brig	-10.1255
▁Therefore	-10.1256
▁transportation	-10.1256
▁learn	-10.1256
▁engineer	-10.1256
▁examination	-10.1257
▁exception	-10.1257
▁hu	-10.1257
▁discussion	-10.1257
terrorism	-10.1257
▁obtain	-10.1257
▁Navy	-10.1257
▁wound	-10.1258
▁(2002)	-10.1259
commission	-10.1259
Warlock	-10.1259
▁1986	-10.1259
▁1925	-10.1259
▁detail	-10.126
▁highest	-10.126
▁establishment	-10.1261
▁Henri	-10.1261
▁1979	-10.1261
▁Rail	-10.1262
ul	-10.1262
▁register	-10.1262
▁weak	-10.1262
▁Angel	-10.1262
▁Argentina	-10.1262
putation	-10.1263
▁Walker	-10.1263
▁Cork	-10.1264
▁avoid	-10.1266
▁sense	-10.1268
▁expression	-10.1268
manuel	-10.1269
▁(45	-10.1269
▁visit	-10.1269
▁matter	-10.1269
▁township	-10.1269
▁1994	-10.1272
▁password	-10.1272
▁debate	-10.1272
▁archaeologi	-10.1273
Genera	-10.1273
▁rare	-10.1274
▁tier	-10.1274
▁Line	-10.1276
▁1827	-10.1281
▁stand	-10.1281
mouth	-10.1282
▁efforts	-10.1283
▁playoffs	-10.1284
constructors	-10.1284
▁lower	-10.1284
amation	-10.129
▁speak	-10.129
▁1967	-10.1291
▁passe	-10.1294
▁folk	-10.1299
urkey	-10.1299
▁defend	-10.13
ace	-10.1301
▁deal	-10.1303
▁win	-10.1304
▁Bang	-10.1305
▁edge	-10.1305
▁manager	-10.1307
ex	-10.1308
▁boy	-10.131
▁Progress	-10.1311
▁sects	-10.1312
hood	-10.1313
▁stock	-10.1314
▁assistant	-10.1315
▁yellow	-10.1315
▁Scott	-10.1315
▁discover	-10.1316
▁vaccinated	-10.1316
▁Edinburgh	-10.1316
vard	-10.1316
▁drink	-10.1317
▁Kang	-10.1317
▁Chang	-10.1318
▁Atlantic	-10.1318
▁Wiki	-10.1318
▁AFF	-10.132
▁Online	-10.1323
▁Down	-10.1325
▁composed	-10.1326
▁fell	-10.1327
▁Christo	-10.1328
▁Colombia	-10.1329
bony	-10.1331
▁exclude	-10.1333
▁counter	-10.1335
▁White	-10.1336
▁saving	-10.1338
▁75	-10.1338
▁protests	-10.1341
▁necessary	-10.1342
▁Key	-10.1342
▁notice	-10.1343
▁toughe	-10.1343
▁regions	-10.1345
▁headquarters	-10.1346
where	-10.1346
mega	-10.1348
▁possess	-10.1351
▁Lamer	-10.1353
▁Arms	-10.1356
▁survived	-10.1356
▁Cor	-10.1358
▁(7)	-10.1358
▁Orthodoxy	-10.1358
▁2003)	-10.1359
▁(6	-10.136
▁board	-10.1361
▁Both	-10.1361
▁worker	-10.1363
▁recover	-10.1366
▁wider	-10.1367
▁Due	-10.1372
▁strict	-10.1373
▁polic	-10.1373
▁trick	-10.1373
▁removed	-10.1373
▁buri	-10.1375
▁FI	-10.1379
▁prohibited	-10.1384
▁customer	-10.1389
▁Master	-10.139
▁loss	-10.1393
▁Toward	-10.1394
▁songs	-10.1398
▁logical	-10.14
▁criticiz	-10.14
▁Rose	-10.1401
▁Fields	-10.1401
▁stor	-10.1403
▁search	-10.1407
▁sale	-10.1408
Movie	-10.1408
vement	-10.1415
▁Shah	-10.1415
stical	-10.1419
▁Fu	-10.142
▁Monument	-10.1423
▁nam	-10.1423
▁Gian	-10.1426
▁depressi	-10.143
▁nouns	-10.1435
▁disc	-10.1439
▁write	-10.1443
▁joint	-10.1444
▁holder	-10.1444
▁players	-10.1446
▁sources	-10.1447
▁critics	-10.145
▁1996.	-10.1452
▁tablets	-10.1453
▁fret	-10.1454
▁Yorker	-10.1455
ates	-10.1456
▁functions	-10.1461
▁suggests	-10.1461
▁Gate	-10.1463
ideo	-10.1464
▁spell	-10.1471
▁structure	-10.1474
▁Clues	-10.1474
uld	-10.1481
▁Federa	-10.1484
kshi	-10.1486
▁variations	-10.15
ides	-10.1502
▁Ice	-10.1504
▁bring	-10.151
▁Sufis	-10.1512
▁historical	-10.1514
▁Van	-10.1517
▁pull	-10.1539
▁mayor	-10.154
lander	-10.1541
▁Pat	-10.1543
ith	-10.1547
▁Mos	-10.1547
▁designs	-10.1551
▁Day	-10.1553
▁gene	-10.1556
▁aut	-10.1564
▁formerly	-10.1564
▁conditions	-10.1565
co	-10.1576
▁agree	-10.158
▁We	-10.1587
▁San	-10.1588
▁Lao	-10.1589
py	-10.159
▁compet	-10.1595
▁Ben	-10.1596
▁Dam	-10.1597
▁Wy	-10.16
15	-10.1601
▁Can	-10.1601
▁CA	-10.1601
▁Berna	-10.1617
▁cha	-10.1635
▁occurr	-10.1642
▁replac	-10.1642
▁routes	-10.1646
▁12-	-10.165
▁ba	-10.1659
▁damaged	-10.1659
▁war	-10.1663
About	-10.1664
▁complete	-10.1666
▁Com	-10.1667
ssociation	-10.1669
▁origins	-10.1679
▁reduc	-10.168
▁technolog	-10.1682
▁plu	-10.1688
▁pairs	-10.1689
amine	-10.1695
▁instruments	-10.1702
▁Transport	-10.1702
▁King	-10.1707
war	-10.1709
▁offices	-10.1714
▁fil	-10.1714
▁titled	-10.1732
▁Privat	-10.1768
▁kings	-10.1777
▁Beth	-10.1779
▁im	-10.1789
▁Mill	-10.1791
TO	-10.18
xpanded	-10.1802
6,	-10.1805
▁complicat	-10.1807
▁tablet	-10.1814
GA	-10.1815
▁hit	-10.1816
▁Ste	-10.1822
▁Kos	-10.1823
ga	-10.1829
▁Bos	-10.1842
▁mon	-10.1846
▁u	-10.1851
▁Lam	-10.1861
dium	-10.1876
▁niqabs	-10.188
ls	-10.1882
eton	-10.1887
▁Hel	-10.1889
▁190	-10.1893
▁Coach	-10.1897
state	-10.1899
yrian	-10.1901
▁Wil	-10.1902
10	-10.1906
▁Kra	-10.1907
,3	-10.1915
▁collaborat	-10.1918
▁Side	-10.1926
llini	-10.1944
250	-10.1944
▁Wal	-10.1949
▁Now	-10.1954
33	-10.1956
▁writing	-10.196
yber	-10.1968
mpire	-10.2002
mers	-10.2004
itially	-10.2005
▁compose	-10.201
▁string	-10.2021
▁Az	-10.2042
▁flo	-10.2044
▁Doo	-10.2053
mina	-10.2061
opoli	-10.2067
▁distinct	-10.2068
▁app	-10.2078
▁stem	-10.208
ters	-10.2099
▁populations	-10.2119
▁depict	-10.2125
ING	-10.2127
see	-10.213
ko	-10.2131
1993).	-10.2138
than	-10.214
compromise	-10.217
nom	-10.2175
▁grids	-10.2177
ai	-10.2187
▁Sin	-10.2187
ugh	-10.2189
stle	-10.2189
▁Sch	-10.219
▁whil	-10.2202
▁raise	-10.2204
▁2-	-10.2213
▁bar	-10.2221
▁goals	-10.2221
▁Bah	-10.2223
▁grad	-10.2246
eased	-10.2248
▁importan	-10.2253
polit	-10.2253
quations	-10.2253
dja	-10.2289
loud	-10.2291
▁Archive	-10.2296
▁humo	-10.2313
▁internal	-10.2324
▁Apost	-10.2325
dies	-10.2333
▁chair	-10.2349
metr	-10.2375
16	-10.2414
▁habitat	-10.2418
col	-10.2419
j	-10.2423
▁Mis	-10.2428
gate	-10.2447
▁charge	-10.245
▁fine	-10.2458
art	-10.2471
▁minorit	-10.2472
né	-10.2481
raw	-10.2484
pit	-10.2484
▁Mik	-10.2487
▁Ref	-10.2498
pal	-10.2499
port	-10.2504
▁compar	-10.2524
ower	-10.2528
rig	-10.2532
lo	-10.2533
inning	-10.254
ns	-10.255
▁Hu	-10.2559
▁gr	-10.2565
▁14,	-10.257
▁Corn	-10.2602
▁Sp	-10.2617
llowing	-10.2624
▁X	-10.2632
▁ones	-10.2634
nk	-10.2657
▁cr	-10.2658
▁2011.	-10.2671
▁ear	-10.2672
▁mark	-10.2677
▁Three	-10.2679
▁pu	-10.2679
▁Is	-10.2682
▁lingu	-10.2684
▁boo	-10.2685
▁Up	-10.269
▁val	-10.2691
dual	-10.2702
ompiler	-10.2722
io	-10.2751
▁Fras	-10.2775
▁2013.	-10.2787
▁2018.	-10.2788
▁responsib	-10.2797
dos	-10.2799
udio	-10.2807
tain	-10.2817
▁Fo	-10.2825
▁72	-10.2829
nent	-10.2852
▁4.	-10.2856
▁Bh	-10.2859
▁fl	-10.2863
ran	-10.2864
▁Isa	-10.2875
▁Or	-10.2876
▁Gua	-10.2881
ury	-10.2888
▁45	-10.2893
▁parliamentar	-10.2904
get	-10.2916
pp	-10.2924
pply	-10.293
ants	-10.2944
hip	-10.295
▁Wa	-10.2955
ssembl	-10.2962
▁root	-10.297
onto	-10.2994
2006)	-10.3003
titled	-10.3012
12	-10.303
▁2017)	-10.3035
ja	-10.308
ift	-10.3084
rror	-10.3091
sed	-10.3092
▁Shar	-10.3097
vice	-10.3119
ional	-10.3127
▁tune	-10.313
▁Centr	-10.3134
▁Kei	-10.3145
▁cro	-10.3146
09	-10.3146
▁media	-10.3149
▁habit	-10.3151
▁sit	-10.3157
▁Select	-10.3171
Gold	-10.3192
her	-10.3201
.4	-10.3201
inancial	-10.3214
▁numbers	-10.3224
▁194	-10.3231
▁Ken	-10.3236
ah	-10.3238
ationwide	-10.3248
▁ne	-10.3249
rest	-10.3259
tal	-10.3264
▁Bel	-10.329
▁coa	-10.329
▁classic	-10.329
why	-10.329
ics	-10.3317
ize	-10.3335
▁Ly	-10.3337
vi	-10.3339
▁Los	-10.3341
▁improv	-10.3355
gue	-10.3387
lled	-10.3394
▁1999	-10.34
▁Southw	-10.3402
wakw	-10.341
▁Um	-10.3419
▁stri	-10.342
▁Au	-10.3422
uel	-10.3436
97	-10.3457
▁big	-10.3457
▁Archiv	-10.3468
ims	-10.3472
rupt	-10.3477
▁1.	-10.3478
erse	-10.3496
▁conque	-10.3533
▁arm	-10.3542
▁seat	-10.3552
apoli	-10.3555
▁fin	-10.3569
39	-10.3575
▁formal	-10.3595
(5,	-10.3601
▁Kor	-10.3615
ura	-10.3627
ff	-10.3658
24	-10.3662
▁somewh	-10.369
▁distincti	-10.3693
▁aff	-10.3696
ator	-10.3698
8.	-10.3699
tan	-10.3702
top	-10.3704
orship	-10.3717
picking	-10.375
▁occur	-10.3756
▁Ak	-10.3762
RT	-10.3773
▁1981	-10.3775
▁clos	-10.3793
▁archi	-10.3802
▁Compos	-10.3829
ntly	-10.3832
cou	-10.3839
▁ad	-10.3843
▁Sara	-10.3846
=	-10.3846
brow	-10.3855
ubbe	-10.3859
tly	-10.3863
ying	-10.3873
▁Ti	-10.3894
ographic	-10.3909
let	-10.3915
oard	-10.3922
▁Clu	-10.3925
ems	-10.3926
ear	-10.3927
▁Gra	-10.3931
▁Francis	-10.3941
▁Sm	-10.3948
point	-10.396
10,	-10.3965
mark	-10.3973
71	-10.3979
▁177	-10.398
▁PA	-10.3984
▁litera	-10.3985
▁examine	-10.3992
cle	-10.3993
urrent	-10.3995
▁note	-10.3996
2)	-10.4008
rry	-10.4014
ality	-10.4017
▁Tre	-10.4035
ech	-10.4035
▁winn	-10.4036
ut	-10.4038
first	-10.4039
▁Sus	-10.4041
▁(197	-10.4045
ino	-10.4049
▁Bi	-10.4059
ija	-10.4073
▁gre	-10.4077
ches	-10.4077
▁int	-10.4078
▁emb	-10.408
aka	-10.4082
rearrange	-10.4087
riga	-10.4093
zi	-10.4096
Ex	-10.4104
▁Di	-10.4116
dvanced	-10.4124
si	-10.4124
▁spen	-10.4124
self	-10.4126
venture	-10.4128
horn	-10.4128
ify	-10.4128
mour	-10.4141
em	-10.4146
▁ob	-10.4146
ively	-10.4147
urs	-10.415
▁Alt	-10.4156
▁lit	-10.4156
Station	-10.4158
of	-10.4161
John	-10.4161
tch	-10.4168
▁1996	-10.4172
race	-10.4185
Torquemada	-10.4187
tively	-10.4188
Kottke	-10.4191
Z	-10.4192
Big	-10.4192
unfinished	-10.4193
BA	-10.4194
fire	-10.4203
Howard	-10.4208
May	-10.4212
Purdy	-10.4213
ctresses	-10.4221
metres	-10.4222
▁gradua	-10.4225
middle	-10.4228
Live	-10.4233
BC	-10.4237
damaged	-10.4239
▁Tra	-10.4241
domina	-10.4245
▁Dat	-10.4248
book	-10.4252
▁Stor	-10.4257
checked	-10.4263
ips	-10.4263
llowed	-10.4266
▁1819	-10.4271
▁wid	-10.4271
J	-10.4275
direct	-10.4282
med	-10.4287
▁Mas	-10.4288
4.	-10.4303
sters	-10.4305
vide	-10.4311
▁Sufi	-10.4313
tric	-10.4328
mins	-10.4331
ore	-10.4333
▁switch	-10.4337
▁campaign	-10.4343
▁principle	-10.4344
▁lawyer	-10.4346
▁alb	-10.4348
▁va	-10.4356
▁technique	-10.4363
▁vaccine	-10.4368
▁source	-10.4374
▁Field	-10.4375
▁hospital	-10.4377
station	-10.4378
round	-10.4378
▁water	-10.4381
▁vehicle	-10.4382
▁warehouse	-10.4387
▁custom	-10.4388
Car	-10.4394
definit	-10.4394
▁change	-10.4409
IZ	-10.4413
vailable	-10.4418
▁Antiqu	-10.4422
▁verb	-10.4434
ered	-10.4434
▁Wild	-10.4441
vol	-10.4443
▁committee	-10.4444
Bru	-10.4449
7)	-10.4454
▁tribe	-10.4455
▁vocal	-10.4477
▁Inter	-10.4484
▁approv	-10.4489
ki	-10.4495
▁prepar	-10.4496
▁inhabit	-10.4504
▁Sea	-10.4515
ux	-10.4515
▁crash	-10.4515
▁bio	-10.4519
▁goal	-10.4522
tect	-10.4528
▁Discog	-10.4529
▁Armenia	-10.453
▁Korea	-10.4536
ptic	-10.4539
▁philosoph	-10.4543
▁necessar	-10.4545
▁industr	-10.4546
▁consistent	-10.4553
large	-10.4557
stitut	-10.4559
onvention	-10.456
▁golf	-10.456
▁song	-10.4565
▁Walk	-10.457
urqa	-10.457
mmigration	-10.4575
just	-10.4576
rik	-10.4577
▁finger	-10.4577
▁investigat	-10.4577
▁Port	-10.458
เ	-10.4581
ັ	-10.4581
Ö	-10.4581
ร	-10.4581
ນ	-10.4581
ີ	-10.4581
^{2}	-10.4581
ни	-10.4581
▁Hampshire	-10.4581
▁Imperial	-10.4581
321-200	-10.4581
INdAM	-10.4581
Significance	-10.4581
Westphalia	-10.4581
isrepresentation	-10.4581
vatnet	-10.4581
əm	-10.4581
о	-10.4581
ດ	-10.4581
‘	-10.4581
▁Abergavenny	-10.4581
▁Archdiocese	-10.4581
▁Askøybrua	-10.4581
▁Bavaria	-10.4581
▁Capital	-10.4581
▁Chanthaly	-10.4581
▁Chicago	-10.4581
▁Dhammayut	-10.4581
▁Eyebeam	-10.4581
▁Glasgow	-10.4581
▁Halpern	-10.4581
▁Herzegovina	-10.4581
▁Istanbul	-10.4581
▁Kaludis	-10.4581
▁Luxembourg	-10.4581
▁Martyrs	-10.4581
▁Mathematics	-10.4581
▁Olyphant	-10.4581
▁Penryn	-10.4581
▁Pitḫana	-10.4581
▁Quebec	-10.4581
▁Rippenkroeger	-10.4581
▁Roussos	-10.4581
▁Sasagawa	-10.4581
▁Sbordone	-10.4581
▁SidusHQ	-10.4581
▁Sondheim	-10.4581
▁Tallinn	-10.4581
▁Taylor	-10.4581
▁Temple	-10.4581
▁Together	-10.4581
▁Włocławek	-10.4581
▁Zalpuwa	-10.4581
▁algorithm	-10.4581
▁congregation	-10.4581
▁crucifix	-10.4581
▁curtailment	-10.4581
▁debris	-10.4581
▁democratic	-10.4581
▁desvenlafaxine	-10.4581
▁dialogue	-10.4581
▁disguise	-10.4581
▁ecclesia	-10.4581
▁eggplant	-10.4581
▁geranylgeranyl	-10.4581
▁global	-10.4581
▁incarnate	-10.4581
▁inhibitor	-10.4581
▁mechanic	-10.4581
▁neighbors	-10.4581
▁orthodox	-10.4581
▁plaintiff	-10.4581
▁principal	-10.4581
▁prosecutors	-10.4581
▁sequence	-10.4581
▁stigma	-10.4581
▁stimulat	-10.4581
▁stratigraph	-10.4581
▁synonym	-10.4581
▁territor	-10.4581
▁tunnel	-10.4581
▁unorthodox	-10.4581
▁widespread	-10.4581
▁Hamilton	-10.4581
▁Kyiv	-10.4581
▁Linnaeus	-10.4581
▁Wanderer	-10.4581
▁companions	-10.4581
▁profanity	-10.4581
▁virtual	-10.4581
Gazula	-10.4581
▁Exploration	-10.4581
▁Kazakh	-10.4581
▁Mineralog	-10.4581
▁Venezuela	-10.4581
▁inscriptions	-10.4581
▁platform	-10.4581
▁surprise	-10.4581
Huaxin	-10.4581
splinter	-10.4581
▁Angola	-10.4581
▁Begum	-10.4581
▁Moussa	-10.4581
▁NYPD	-10.4581
▁TUI	-10.4581
▁margin	-10.4581
ą	-10.4581
▁cinema	-10.4581
▁collapse	-10.4581
▁semester	-10.4581
Employ	-10.4581
▁affiliation	-10.4581
▁mammo	-10.4581
▁Android	-10.4581
▁Blair	-10.4581
▁Challeng	-10.4581
▁Blanc	-10.4581
▁Kanchi	-10.4581
▁choice	-10.4581
▁concentrati	-10.4581
▁consonant	-10.4581
▁geometry	-10.4581
▁Knighthood	-10.4581
▁voluntar	-10.4581
▁Granville	-10.4581
▁Soundtrack	-10.4581
▁ritual	-10.4581
▁Vocals	-10.4581
▁Virginia	-10.4581
▁jungle	-10.4581
▁Jacqu	-10.4581
▁ignore	-10.4581
▁unsound	-10.4581
ー	-10.4581
Toughie	-10.4581
▁disorder	-10.4581
▁pursue	-10.4581
▁consequen	-10.4581
▁affairs	-10.4581
▁Balfour	-10.4581
▁Holiness	-10.4581
▁fretboard	-10.4581
▁toward	-10.4581
▁(2012)	-10.4581
▁Vienna	-10.4581
▁adjective	-10.4581
▁vertex	-10.4581
▁Bibliography	-10.4581
▁ocean	-10.4581
ttorney	-10.4581
▁Carroll	-10.4581
▁recipient	-10.4581
▁Fortress	-10.4581
▁suffragette	-10.4581
▁Congress	-10.4581
▁Physic	-10.4581
▁Slovakia	-10.4581
▁presence	-10.4581
▁Future	-10.4581
▁Moorey	-10.4581
▁Plaza	-10.4582
▁Disrupt	-10.4582
▁juice	-10.4582
▁legend	-10.4582
▁grammar	-10.4582
▁smoke	-10.4582
▁Lanka	-10.4582
▁submission	-10.4582
▁wreck	-10.4582
▁Homophone	-10.4582
▁employees	-10.4582
▁Belize	-10.4582
▁substitute	-10.4582
▁unique	-10.4582
AKP	-10.4582
▁encode	-10.4582
▁aircraft	-10.4582
▁explosive	-10.4582
▁Williamsburg	-10.4582
▁shift	-10.4582
-154	-10.4582
▁initiative	-10.4582
▁demand	-10.4582
▁sector	-10.4582
▁Short	-10.4582
▁illiterate	-10.4582
▁defendant	-10.4582
GhPE	-10.4582
▁iOS	-10.4582
▁Borden	-10.4582
▁narrative	-10.4582
affirmed	-10.4582
▁doctor	-10.4582
OTP	-10.4582
▁complex	-10.4582
▁broadcast	-10.4582
▁Teams	-10.4582
▁install	-10.4582
▁Lemon	-10.4583
▁guest	-10.4583
▁transfer	-10.4583
▁dancing	-10.4583
▁musicians	-10.4583
▁Arka	-10.4583
▁Debate	-10.4583
▁resort	-10.4583
▁Bangkok	-10.4583
▁fifth	-10.4583
▁airline	-10.4583
▁Faculty	-10.4583
Crisp	-10.4583
▁LLC	-10.4583
▁Deletion	-10.4583
▁Lodi	-10.4583
▁Kirk	-10.4583
▁happen	-10.4583
▁northeast	-10.4583
▁Specification	-10.4583
▁Emerson	-10.4583
Serbia	-10.4583
▁Kemal	-10.4583
▁Camero	-10.4583
▁sister	-10.4584
▁Garden	-10.4584
▁room	-10.4584
cumen	-10.4584
▁quarter	-10.4584
▁anatomist	-10.4584
▁1790	-10.4584
▁initialism	-10.4584
▁CREG	-10.4584
▁peace	-10.4585
▁dissection	-10.4585
▁spiritual	-10.4585
▁tickets	-10.4585
▁syntax	-10.4585
▁ranking	-10.4585
▁Prize	-10.4585
▁freeway	-10.4585
▁1959	-10.4585
▁Classic	-10.4585
ncyclop	-10.4585
▁Falk	-10.4585
▁animal	-10.4585
▁Belarusian	-10.4585
▁Marshall	-10.4585
▁index	-10.4585
▁lawmak	-10.4586
▁address	-10.4586
▁depend	-10.4586
▁Holmes	-10.4586
▁thunder	-10.4586
▁Graves	-10.4586
▁chamber	-10.4586
▁Gerald	-10.4586
▁writer	-10.4586
culpt	-10.4586
Elro	-10.4586
▁Space	-10.4586
▁liberal	-10.4586
▁radio	-10.4587
▁mystery	-10.4587
▁wrong	-10.4587
▁reveal	-10.4587
▁Manley	-10.4588
▁Hugo	-10.4588
▁sequel	-10.4588
▁injured	-10.4588
▁Governor	-10.4588
craft	-10.4589
▁rude	-10.4589
▁Piton	-10.4589
▁Earth	-10.4589
▁Musk	-10.4589
▁scientific	-10.4589
▁Rico	-10.4589
▁mound	-10.459
▁Burgundy	-10.459
▁(2007)	-10.459
▁boundary	-10.459
ugby	-10.459
Seoul	-10.459
▁theatre	-10.459
▁9268	-10.459
ailment	-10.459
▁frame	-10.4591
▁1909	-10.4591
▁Today	-10.4591
▁originated	-10.4591
▁Notice	-10.4591
▁worship	-10.4592
▁Vla	-10.4592
ichael	-10.4593
▁Greece	-10.4593
Milton	-10.4593
▁1983	-10.4593
▁Schoolhouse	-10.4593
▁Wiley	-10.4593
▁fiction	-10.4593
:45	-10.4593
▁fast	-10.4594
▁extent	-10.4594
▁Wheel	-10.4594
postasy	-10.4594
▁moist	-10.4595
▁error	-10.4595
▁border	-10.4595
▁complaint	-10.4595
▁defeat	-10.4595
▁begin	-10.4595
▁identify	-10.4596
amiable	-10.4596
▁mainland	-10.4596
CC	-10.4596
▁Residence	-10.4597
▁Paulus	-10.4597
▁undergo	-10.4597
WH	-10.4597
GAMES	-10.4597
▁iron	-10.4598
▁Local	-10.4599
▁1966	-10.4599
▁Originally	-10.4599
▁succession	-10.4599
bla	-10.46
▁prophet	-10.46
idae	-10.46
▁Spring	-10.46
▁socio	-10.4601
▁disturbed	-10.4601
▁cooked	-10.4601
▁Hort	-10.4601
▁borough	-10.4602
▁1972	-10.4602
▁Names	-10.4602
▁franca	-10.4602
▁Laore	-10.4602
▁uniform	-10.4603
▁Yard	-10.4604
▁1940	-10.4605
▁1954	-10.4605
▁Studies	-10.4605
▁Bj	-10.4605
▁90	-10.4605
▁disable	-10.4606
▁1821	-10.4607
▁viol	-10.4608
▁Grant	-10.4608
▁expect	-10.4608
▁food	-10.4608
▁Talk	-10.461
▁return	-10.4611
▁Sound	-10.4611
▁1880	-10.4613
▁300	-10.4613
▁contest	-10.4613
▁increased	-10.4613
▁moving	-10.4614
▁1885	-10.4614
▁Comic	-10.4617
▁Pick	-10.4617
▁captured	-10.4618
tian	-10.4619
▁entering	-10.4619
ltimate	-10.462
▁philosophy	-10.4621
▁exemption	-10.4621
▁Mich	-10.4621
▁Lake	-10.4624
▁discipline	-10.4627
▁Khan	-10.4627
▁1965	-10.4628
▁funding	-10.4629
win	-10.4629
▁burial	-10.463
▁academic	-10.463
ency	-10.463
▁bones	-10.4631
▁secularist	-10.4631
▁decades	-10.4631
▁deletions	-10.4632
▁restaurants	-10.4632
▁Liburnians	-10.4632
▁Applications	-10.4632
▁soil	-10.4632
▁Mash	-10.4633
▁Armenian	-10.4633
▁destinations	-10.4633
▁elements	-10.4633
▁limited	-10.4633
▁judges	-10.4635
▁Boat	-10.4636
▁1506	-10.4636
hine	-10.4639
▁argu	-10.464
▁flat	-10.4641
▁Town	-10.4644
▁crosses	-10.4644
modified	-10.4645
entral	-10.4648
▁Indiana	-10.4649
▁serving	-10.4649
-35	-10.4652
▁crashed	-10.4652
▁identified	-10.4652
▁permitted	-10.4652
▁attac	-10.4653
▁trailer	-10.4654
seas	-10.4655
▁comply	-10.4656
▁Edition	-10.4657
▁rose	-10.4658
▁Source	-10.4658
pher	-10.4662
▁Ori	-10.4662
▁think	-10.4663
▁testing	-10.4665
▁equal	-10.4667
▁suspect	-10.4667
▁buffer	-10.4668
▁blow	-10.4669
▁(9)	-10.4671
▁idol	-10.4672
▁6:00	-10.4672
hed	-10.4673
▁boarding	-10.4674
▁(1987)	-10.4674
▁introduce	-10.4675
▁Champions	-10.4675
▁celebrat	-10.4676
▁canton	-10.4676
▁Cast	-10.4677
▁JMAA	-10.4677
▁bishop	-10.4678
▁fodder	-10.4678
▁Ottawa	-10.4678
▁LOCAAS	-10.4678
▁norepinephrine	-10.4678
▁dream	-10.4678
▁Power	-10.4678
▁Araucaria	-10.4679
▁Tokyo	-10.4679
▁surname	-10.4679
▁AF	-10.4679
▁affected	-10.4679
▁consumer	-10.468
▁Den	-10.4681
▁management	-10.4681
▁brake	-10.4683
-10	-10.4683
▁Though	-10.4686
▁odd	-10.4686
▁Partner	-10.4686
▁Range	-10.4687
▁player	-10.4688
▁speech	-10.4689
▁IV	-10.469
▁wild	-10.4693
annot	-10.4694
▁conform	-10.4694
▁Paris	-10.4694
fense	-10.4695
▁tied	-10.4696
▁(15	-10.4697
▁opposit	-10.4699
▁documented	-10.4699
▁Chew	-10.47
President	-10.4702
▁preach	-10.4703
ori	-10.4706
▁plain	-10.4706
hides	-10.4707
atory	-10.4707
Across	-10.4707
▁arrives	-10.471
celebrity	-10.471
▁alternative	-10.4714
ult	-10.4714
ams	-10.4714
▁mathematics	-10.4714
▁leaves	-10.4715
▁restricted	-10.4715
▁fleets	-10.4716
▁Anagrams	-10.4716
▁tolerate	-10.4717
▁permitt	-10.4718
mond	-10.4718
olm	-10.4718
ute	-10.472
pecifically	-10.4721
▁moment	-10.4721
CGI	-10.4721
▁churches	-10.4721
▁egg	-10.4722
▁Anne	-10.4723
▁via	-10.4724
▁possibl	-10.4724
▁(1966)	-10.4724
ective	-10.4726
▁Girl	-10.4727
ends	-10.4729
ric	-10.4731
lux	-10.4738
brew	-10.4741
▁nun	-10.4741
▁1974).	-10.4744
ador	-10.4744
▁lb	-10.4746
▁illegal	-10.4748
▁drive	-10.4749
▁weigh	-10.4751
qua	-10.4752
▁explore	-10.4754
▁digital	-10.4755
▁Sons	-10.4758
▁1969.	-10.476
▁sa	-10.4761
▁tail	-10.4761
▁stay	-10.4765
▁criticis	-10.4766
▁Cold	-10.4769
▁assist	-10.4771
▁direction	-10.4773
▁More	-10.4774
▁(5)"	-10.4774
▁settler	-10.4776
dulla	-10.4777
did	-10.4782
▁raid	-10.4786
▁intended	-10.4786
▁prai	-10.4788
▁2024	-10.479
▁enter	-10.479
▁photo	-10.479
▁vocals	-10.4793
uš	-10.4796
▁vaccines	-10.4798
▁tribes	-10.4799
haracters	-10.4804
▁techniques	-10.4804
▁Bert	-10.481
crack	-10.4822
annah	-10.4822
▁Donald	-10.4824
▁selection	-10.4828
Leary	-10.4828
▁Ash	-10.4829
▁Latvia	-10.4832
▁Wind	-10.4833
▁1995)	-10.4834
▁writers	-10.4834
▁resident	-10.4837
inner	-10.4838
▁Stan	-10.4839
▁Bak	-10.4839
▁Nord	-10.484
instead	-10.4842
▁central	-10.4844
▁lover	-10.4844
▁Fried	-10.4844
▁sort	-10.4847
▁sent	-10.4854
minated	-10.4856
neous	-10.4858
GN	-10.4859
umn	-10.4859
lingua	-10.4859
lished	-10.486
▁Trac	-10.4866
▁Dog	-10.4871
3,	-10.4876
▁fund	-10.4878
▁trips	-10.4883
▁rip	-10.4885
▁Jona	-10.4891
▁reviews	-10.4892
▁print	-10.4896
▁Bent	-10.4897
▁kno	-10.4899
▁oppos	-10.49
lays	-10.49
▁Kath	-10.4904
ndemic	-10.4907
amily	-10.4907
▁occurre	-10.4908
▁wall	-10.4911
ci	-10.4916
▁mag	-10.4916
▁solved	-10.4922
▁rela	-10.4928
▁command	-10.4928
At	-10.4941
▁texts	-10.4945
rib	-10.4946
▁giv	-10.4949
▁partner	-10.4949
▁stage	-10.4952
▁base	-10.4953
▁Novi	-10.4953
▁comics	-10.4967
itz	-10.4968
▁Arm	-10.4969
▁signal	-10.4969
▁spin	-10.4974
▁Ann	-10.4975
▁settings	-10.4975
▁eyes	-10.4977
▁rel	-10.4978
▁divisions	-10.4979
▁minutes	-10.4979
portion	-10.4984
lades	-10.4985
▁mathematic	-10.4985
▁Torquemada	-10.4991
▁23,	-10.4992
eral	-10.4994
▁coll	-10.4995
▁Mean	-10.4997
▁Jak	-10.4998
edia	-10.4998
▁Industr	-10.5002
cin	-10.5003
▁starr	-10.5004
▁unfinished	-10.5007
▁los	-10.5009
▁immigra	-10.5021
▁Lig	-10.5026
▁appl	-10.5029
▁wing	-10.5033
▁mot	-10.5035
mp	-10.5036
▁Impro	-10.5036
▁Bry	-10.5037
▁insist	-10.5038
▁DES	-10.504
lude	-10.5043
▁1–3	-10.505
oman	-10.5058
▁gra	-10.5059
▁Queens	-10.5063
▁Anabaptists	-10.5063
▁Lords	-10.5069
▁DA	-10.507
▁intend	-10.507
▁fix	-10.507
rus	-10.5073
other	-10.5074
ford	-10.5076
twins	-10.5077
▁finding	-10.5081
duct	-10.5084
▁trace	-10.5085
onga	-10.5093
aught	-10.5095
▁Sam	-10.5097
▁pr	-10.5098
▁trees	-10.5099
arrow	-10.5103
▁bo	-10.511
tern	-10.5111
▁SC	-10.5117
▁59	-10.5117
▁Dave	-10.5121
▁Jon	-10.5124
exis	-10.5124
des	-10.5125
gross	-10.5131
▁Sey	-10.5132
▁spans	-10.5132
▁Jer	-10.5138
iense	-10.514
▁Ship	-10.5142
▁clubs	-10.5144
▁champion	-10.5154
hemical	-10.5156
ubic	-10.5157
lastic	-10.5158
▁Cul	-10.5162
▁penalt	-10.5165
Lovatts	-10.5169
▁(1)	-10.5174
▁pain	-10.5179
▁Intern	-10.518
▁differ	-10.5181
ledge	-10.5183
ington	-10.5188
▁Bey	-10.5188
▁Solve	-10.519
▁skill	-10.5194
resident	-10.5212
▁AD	-10.5215
titude	-10.5219
base	-10.5224
▁Print	-10.5225
▁competitions	-10.5241
▁Services	-10.5242
▁Eas	-10.5245
AS	-10.5246
▁stone	-10.5247
▁mere	-10.5248
▁Russ	-10.5261
▁193	-10.5261
4-	-10.5265
▁Francisc	-10.5268
▁si	-10.5272
▁cur	-10.5276
▁Min	-10.5277
▁compo	-10.5282
▁quit	-10.5285
its	-10.5287
▁Del	-10.5288
rn	-10.5289
▁interi	-10.5296
ders	-10.5296
▁Ar	-10.5299
▁Mir	-10.5303
▁fo	-10.5305
▁57	-10.5305
tle	-10.5307
dia	-10.5307
▁seek	-10.5318
▁1908	-10.5319
▁Coll	-10.5327
apid	-10.533
▁comment	-10.5339
▁(14.	-10.5341
anced	-10.5343
etters	-10.5345
▁Player	-10.5348
▁Fra	-10.535
CO	-10.5358
▁Camp	-10.536
action	-10.5378
▁blues	-10.5381
▁declare	-10.5381
▁preci	-10.539
▁hair	-10.5391
▁relative	-10.5405
▁Boy	-10.5406
tty	-10.5409
▁crick	-10.5412
▁Natur	-10.5418
lot	-10.5436
big	-10.5439
vad	-10.5446
▁(33	-10.5449
▁facult	-10.545
▁compil	-10.5457
▁track	-10.5458
▁forbidd	-10.5458
nning	-10.5459
▁rewrit	-10.5462
▁acquisition	-10.5473
zmi	-10.5479
UT	-10.5487
▁27	-10.549
▁hijabs	-10.55
▁bare	-10.5501
▁sections	-10.5514
mason	-10.5519
nes	-10.5522
▁ran	-10.5526
Ph	-10.5531
erald	-10.5532
▁abs	-10.5547
▁fra	-10.5558
1890	-10.5563
conomic	-10.5563
▁mess	-10.557
▁Missi	-10.5584
lletin	-10.5584
▁justif	-10.5589
▁articles	-10.559
ban	-10.5591
▁participat	-10.561
▁str	-10.5612
▁Near	-10.5612
tube	-10.5617
▁Plo	-10.5618
zer	-10.5627
ionship	-10.5632
vers	-10.5638
▁Dru	-10.5648
ajor	-10.5652
▁Lia	-10.5657
sp	-10.5658
▁Mari	-10.5658
cid	-10.5661
▁convers	-10.5664
60	-10.5667
▁religions	-10.5668
▁qua	-10.5669
ans	-10.5676
rofile	-10.5677
▁Kn	-10.5682
▁opin	-10.5706
▁Cost	-10.5707
anc	-10.5708
▁wa	-10.5713
ik	-10.5725
tro	-10.5729
▁Bri	-10.5732
long	-10.5736
ospho	-10.5741
urth	-10.5747
▁resid	-10.5749
cha	-10.5759
inal	-10.5778
▁Shir	-10.5782
rough	-10.5783
act	-10.5786
erformance	-10.5787
▁associat	-10.5788
▁accus	-10.579
ged	-10.5791
▁era	-10.5794
▁Du	-10.5801
▁Mit	-10.5814
▁lands	-10.5817
▁2008)	-10.5823
320	-10.5825
▁bu	-10.5838
erek	-10.5838
mall	-10.5841
evil	-10.5841
etwork	-10.5845
▁Ghanaians	-10.5847
▁sites	-10.5848
make	-10.5862
▁el	-10.5869
▁2005.	-10.5871
ef	-10.5876
▁Kit	-10.5881
▁us	-10.5885
ses	-10.5889
▁plane	-10.5894
ock	-10.5903
ovie	-10.5906
▁declar	-10.591
ger	-10.5927
▁shad	-10.593
▁hat	-10.5936
▁authorit	-10.5943
ational	-10.5949
▁focuse	-10.5952
Proc	-10.5954
▁meanings	-10.5955
ameter	-10.596
▁Sola	-10.5972
▁prov	-10.5982
tive	-10.5985
special	-10.5988
▁graphs	-10.599
▁employer	-10.5991
▁Catholics	-10.6019
▁seasons	-10.6023
nnotation	-10.6025
▁pay	-10.6028
▁adhere	-10.603
▁allo	-10.6034
▁Leon	-10.6052
51	-10.6065
▁Char	-10.6075
▁1836	-10.6079
omb	-10.6088
ifying	-10.6089
▁substr	-10.609
▁supporter	-10.6093
▁albums	-10.6101
ag	-10.6116
▁85	-10.6129
▁instruction	-10.6143
eit	-10.6165
▁Geograph	-10.6183
tant	-10.6184
▁separate	-10.619
Ra	-10.6206
▁promote	-10.6207
▁Fina	-10.6215
18	-10.6217
mes	-10.6222
▁76	-10.6226
▁exhibit	-10.6236
pu	-10.6243
ships	-10.6253
▁earn	-10.6257
▁Mom	-10.6257
▁twi	-10.6258
hi	-10.6261
nish	-10.6266
hn	-10.6277
nam	-10.6278
▁theology	-10.6302
reportedly	-10.6302
bet	-10.6308
▁van	-10.6308
tock	-10.633
▁Ver	-10.6331
▁magazines	-10.6359
erto	-10.6368
▁80	-10.6371
▁Jud	-10.6389
ip	-10.6409
▁elevat	-10.6409
▁17,	-10.641
ollege	-10.6411
5)	-10.6412
▁Lega	-10.6417
1.3	-10.6418
▁Erro	-10.6423
ures	-10.6424
▁(199	-10.643
ON	-10.6435
uzzi	-10.6441
lands	-10.6453
ntil	-10.6455
returns	-10.6467
don	-10.648
▁Cla	-10.6484
▁exac	-10.6491
▁fun	-10.6493
var	-10.65
▁proper	-10.6514
ollow	-10.6524
▁sen	-10.6553
anxi	-10.6557
wan	-10.6561
▁Fed	-10.6575
ise	-10.6575
stok	-10.6576
▁burn	-10.6577
▁Brea	-10.6585
▁sil	-10.6588
roduction	-10.6599
▁roots	-10.6604
winners	-10.6604
▁sy	-10.6606
▁Studi	-10.661
▁Cryptics	-10.6618
lder	-10.6626
▁Tech	-10.665
SP	-10.6653
odo	-10.6655
×	-10.6666
sides	-10.6668
▁Cr	-10.6677
ott	-10.6699
▁teams	-10.671
▁Store	-10.671
3,5	-10.6711
7,	-10.6714
ned	-10.6715
▁Dem	-10.6717
▁Ches	-10.6734
▁circ	-10.6735
13	-10.6748
shap	-10.6756
▁3.	-10.6766
ume	-10.6784
▁Carr	-10.6785
1999)	-10.6788
▁Mah	-10.6801
')	-10.6811
▁Kam	-10.6815
▁Go	-10.6831
▁secret	-10.6835
▁Cur	-10.6851
sure	-10.6864
ep	-10.6874
institutional	-10.6876
esearch	-10.6877
shops	-10.6878
position	-10.6892
▁Rando	-10.6892
cto	-10.6894
pping	-10.6895
▁Rand	-10.691
arch	-10.6931
-7	-10.6941
yo	-10.6981
ragic	-10.6983
203	-10.6984
▁low	-10.6986
▁generat	-10.6995
▁Manu	-10.7
▁intens	-10.7008
▁produc	-10.7023
,'	-10.7029
fication	-10.7031
▁shar	-10.7043
-1	-10.7043
▁2019.	-10.7051
▁TC	-10.7052
08	-10.7059
29,	-10.7062
rust	-10.7077
vy	-10.7081
▁associate	-10.7082
▁(5	-10.7095
atum	-10.7113
▁2009)	-10.7116
gs	-10.7129
bay	-10.7186
rder	-10.7187
got	-10.7193
▁2017.	-10.7203
▁Joe	-10.7209
ba	-10.7215
ru	-10.7218
ser	-10.7234
▁dec	-10.7235
▁62	-10.7242
▁severe	-10.7246
▁Vari	-10.7247
XI	-10.7264
LD	-10.7292
cca	-10.7293
uart	-10.7298
▁51	-10.7302
▁exp	-10.7305
▁minor	-10.7306
RA	-10.7306
gle	-10.7308
▁Treat	-10.7335
▁Var	-10.7338
▁Tow	-10.736
og	-10.7362
arian	-10.7368
:00	-10.7369
73	-10.7387
▁charg	-10.7389
▁occasion	-10.7392
▁settl	-10.7396
umb	-10.7397
ab	-10.7406
dop	-10.7412
ewis	-10.7415
sual	-10.7428
bir	-10.7456
▁Ea	-10.7457
gi	-10.7464
actor	-10.7467
▁settle	-10.7471
otel	-10.7489
▁lift	-10.7492
▁Unt	-10.7498
▁impose	-10.7499
▁generati	-10.7505
▁Ni	-10.7514
▁vul	-10.7523
lar	-10.7526
ora	-10.753
▁Ye	-10.7537
▁Roads	-10.7555
ception	-10.756
▁provid	-10.7564
remises	-10.7571
16–	-10.758
ges	-10.759
0%	-10.7592
▁trad	-10.7602
allus	-10.7605
anger	-10.7607
acre	-10.7609
ery	-10.7609
▁larg	-10.7619
ended	-10.762
▁cou	-10.7628
stic	-10.7628
Vi	-10.7635
aba	-10.7638
▁Ji	-10.7648
owland	-10.7651
▁wish	-10.7658
ill	-10.7663
pri	-10.7695
los	-10.7713
0–2	-10.7715
▁189	-10.7717
ead	-10.7717
anches	-10.7744
▁premi	-10.775
vitation	-10.775
used	-10.7753
core	-10.7756
▁cons	-10.776
▁adopt	-10.7761
▁save	-10.7761
▁Ahme	-10.7764
arly	-10.7764
98	-10.7773
rophy	-10.7775
▁consum	-10.7778
▁sol	-10.7792
olf	-10.7797
ugg	-10.7799
▁Schl	-10.7803
rbag	-10.7806
Sin	-10.7816
▁Propo	-10.784
settled	-10.7841
even	-10.7843
destr	-10.785
effective	-10.7851
til	-10.7857
rama	-10.7864
▁87	-10.7868
▁cre	-10.7868
▁Mal	-10.7873
▁Hir	-10.7874
▁chi	-10.7881
▁simple	-10.7884
▁summe	-10.7896
▁ice	-10.7898
ave	-10.7908
ition	-10.7916
eute	-10.7933
▁cont	-10.7938
▁fr	-10.7939
▁tar	-10.795
res	-10.7957
erra	-10.7967
▁NS	-10.7968
sha	-10.7976
qui	-10.7978
riya	-10.7985
ros	-10.7988
▁Row	-10.7989
▁(3	-10.799
inson	-10.8006
▁196	-10.8014
una	-10.8015
▁152	-10.8015
▁opini	-10.8019
aneous	-10.802
ties	-10.8029
ama	-10.8029
▁2007)	-10.8031
▁let	-10.8035
▁Bart	-10.8045
▁lie	-10.8049
dventure	-10.805
▁Journ	-10.8051
cept	-10.8059
IT	-10.8077
▁secondar	-10.8092
ó	-10.8092
▁Charl	-10.8095
con	-10.81
35	-10.8101
▁Medic	-10.8105
lose	-10.8114
acht	-10.8125
š	-10.8125
oma	-10.8162
burn	-10.8164
meter	-10.8177
mar	-10.8195
ped	-10.8195
nny	-10.82
irs	-10.8228
▁draw	-10.8233
shi	-10.8238
ø	-10.8265
▁Laws	-10.8272
▁conf	-10.8272
▁attribut	-10.8277
▁categori	-10.8285
mat	-10.8289
sing	-10.8292
▁elev	-10.8304
▁rais	-10.8327
▁1956	-10.8329
stan	-10.8337
▁Pro	-10.8341
▁Ser	-10.8342
▁forbid	-10.8343
▁Out	-10.837
flection	-10.8373
nda	-10.8376
▁Hot	-10.838
ished	-10.8389
▁cast	-10.839
plication	-10.8396
und	-10.8399
11	-10.8407
zed	-10.8434
4,	-10.8435
playing	-10.8437
▁Cu	-10.8449
rack	-10.845
70	-10.845
▁soci	-10.8459
10.	-10.8461
▁1988	-10.8484
ural	-10.8489
▁mine	-10.85
▁describ	-10.8506
aste	-10.8535
ssage	-10.8535
▁prefer	-10.854
wak	-10.8541
▁ash	-10.8546
rling	-10.8547
nn	-10.8558
▁Cri	-10.8562
▁Tar	-10.8565
▁commit	-10.8579
play	-10.8589
▁Jen	-10.8607
TER	-10.8614
cked	-10.8615
itude	-10.8621
▁relations	-10.8624
▁Vo	-10.8632
▁pla	-10.8643
▁submit	-10.8676
sta	-10.8678
ec	-10.8691
owing	-10.8697
mong	-10.8715
ij	-10.8718
▁las	-10.8721
uce	-10.8725
pha	-10.8725
take	-10.8734
low	-10.8737
nis	-10.874
rts	-10.8742
▁Pres	-10.8763
otes	-10.8763
chedule	-10.8771
kia	-10.8775
▁Buddh	-10.8776
▁Yo	-10.8777
ada	-10.878
0)	-10.8788
ature	-10.8793
▁Miss	-10.8796
▁ski	-10.8797
▁trac	-10.8817
▁imp	-10.8823
99	-10.8824
ili	-10.8838
▁182	-10.8845
▁caus	-10.8847
53	-10.8873
▁Od	-10.8879
1–	-10.8881
▁Geo	-10.8882
8)	-10.8889
▁spec	-10.8907
oya	-10.8912
▁Chemi	-10.8914
ndicated	-10.8922
▁genera	-10.8925
31	-10.8927
▁pl	-10.8929
mine	-10.8933
▁identifi	-10.8934
▁Ty	-10.8936
who	-10.8966
public	-10.8987
arts	-10.8991
rit	-10.8998
▁reache	-10.9002
University	-10.9002
part	-10.9004
+	-10.9005
av	-10.9016
quick	-10.9021
▁34	-10.9022
▁Ju	-10.9028
▁sw	-10.9028
pet	-10.9029
▁wea	-10.9035
formation	-10.9047
▁(13	-10.9047
ask	-10.905
ization	-10.9056
▁proc	-10.9056
Over	-10.9058
tai	-10.9064
67	-10.9066
ole	-10.9067
.6	-10.9067
ee	-10.9074
▁lat	-10.9074
▁prim	-10.9075
command	-10.908
would	-10.9081
Q	-10.9084
National	-10.9091
bound	-10.9092
ür	-10.9093
▁specifi	-10.9094
religious	-10.9121
writ	-10.9125
including	-10.9127
August	-10.9127
&	-10.9129
Die	-10.9137
through	-10.9138
Australia	-10.914
foot	-10.9142
airs	-10.9149
language	-10.915
definition	-10.915
December	-10.9151
isk	-10.9151
Sunnah	-10.9152
straight	-10.9153
ain	-10.9155
entury	-10.9161
string	-10.9165
PS	-10.9171
RE	-10.9179
Note	-10.918
keep	-10.9182
school	-10.9183
Achillini	-10.9184
Latvia	-10.9185
Fried	-10.9185
published	-10.9186
Willis	-10.9192
Guardian	-10.9193
Thunderbird	-10.9193
meaning	-10.9193
First	-10.9194
Monument	-10.9194
regular	-10.9196
Dog	-10.9196
complete	-10.9196
developed	-10.9199
Ximenean	-10.92
Russian	-10.9202
formerly	-10.9202
DA	-10.9203
40	-10.9203
Au	-10.9204
century	-10.9204
Wassaic	-10.9204
white	-10.9205
friend	-10.9205
board	-10.9205
father	-10.9205
Ximenes	-10.9205
▁structur	-10.9206
physic	-10.9206
whether	-10.9207
Cope	-10.9207
release	-10.9208
Minsk	-10.9209
Whale	-10.9209
month	-10.9209
suit	-10.9209
Schism	-10.9209
Kaneš	-10.921
someone	-10.9211
vision	-10.9213
56	-10.9215
III	-10.9216
Way	-10.9216
nge	-10.9219
UK	-10.9223
nvention	-10.9224
Thus	-10.9227
Lee	-10.9228
Liber	-10.9228
solution	-10.9231
▁Med	-10.9236
▁remov	-10.9237
▁$3	-10.9245
ssen	-10.9246
words	-10.925
mother	-10.9252
-2	-10.9252
Mar	-10.9253
communication	-10.9255
▁trans	-10.9257
schismatic	-10.9258
▁1923	-10.9259
▁1924	-10.926
few	-10.9267
berry	-10.9269
level	-10.9271
Reference	-10.9276
third	-10.9279
cultural	-10.9284
Donald	-10.9287
Eu	-10.9288
▁Det	-10.9294
▁Trans	-10.9296
bia	-10.9298
cations	-10.9305
Ali	-10.9308
▁historic	-10.9308
▁1969	-10.9315
guin	-10.9321
blo	-10.9326
64	-10.9326
rè	-10.934
▁predecessor	-10.9343
▁dialect	-10.9344
▁shrub	-10.9344
stage	-10.9344
▁vessel	-10.9344
▁audience	-10.9344
▁Building	-10.9344
▁mandate	-10.9345
▁Citation	-10.9345
▁Sav	-10.9346
groups	-10.9346
▁stud	-10.9348
▁job	-10.9349
▁Puzzler	-10.9356
lore	-10.9357
▁Doctor	-10.9365
1996	-10.9365
Tir	-10.9366
▁Anagram	-10.9369
lug	-10.9369
▁headquarter	-10.9372
▁fleet	-10.9373
▁arrive	-10.9375
▁region	-10.9376
▁application	-10.9379
▁protest	-10.9379
▁sail	-10.938
orrect	-10.9382
▁leave	-10.9385
green	-10.9386
burg	-10.9387
▁abbreviation	-10.9387
uz	-10.9393
▁1900	-10.9401
official	-10.9403
eres	-10.9404
llum	-10.9407
kai	-10.9412
yone	-10.9412
▁2010)	-10.9416
bbreviations	-10.942
duced	-10.9421
84-1	-10.9428
▁speaker	-10.9436
86	-10.9438
tional	-10.9439
▁Nic	-10.944
ssistant	-10.9441
▁buff	-10.9444
inger	-10.9447
you	-10.9447
▁1822	-10.9447
ky	-10.9451
setters	-10.9457
▁Lan	-10.9458
▁Right	-10.9461
▁179	-10.9462
▁manage	-10.9464
▁Gul	-10.9464
enna	-10.9467
ene	-10.948
ded	-10.9482
▁respect	-10.9484
▁model	-10.9487
▁warehous	-10.9491
▁explain	-10.9496
▁teach	-10.9496
▁limit	-10.9498
▁block	-10.95
▁trail	-10.95
▁melod	-10.9503
▁destroy	-10.9503
▁tap	-10.9505
▁threaten	-10.9505
min	-10.9507
spire	-10.9511
▁determine	-10.9516
▁exempt	-10.9517
▁fee	-10.9517
iller	-10.952
▁maintain	-10.952
▁Pow	-10.9521
▁Production	-10.9522
▁capture	-10.9524
▁excavat	-10.9528
▁debat	-10.953
▁Op	-10.9535
▁seiz	-10.9535
▁Assyria	-10.9535
seven	-10.9536
▁Else	-10.9536
▁Affair	-10.9538
tire	-10.9539
biz	-10.954
▁fault	-10.954
▁Argentin	-10.9548
My	-10.9549
▁franc	-10.9549
tracts	-10.955
▁Sou	-10.9555
mass	-10.9556
▁cove	-10.9557
▁enforce	-10.9559
▁politic	-10.956
▁Reg	-10.9561
▁Radi	-10.9561
▁AP	-10.9561
▁earlie	-10.9564
▁UN	-10.9564
▁feel	-10.9566
cientific	-10.9568
ribunal	-10.9568
▁engine	-10.9568
▁Vaccin	-10.957
▁Access	-10.9571
▁threat	-10.9571
rat	-10.9572
5).	-10.9573
▁abbreviat	-10.9573
octrine	-10.9574
▁cloth	-10.9575
▁Alexand	-10.9575
ē	-10.9576
▁succe	-10.9576
▁domestic	-10.9576
▁recommend	-10.9577
▁Atlant	-10.9578
▁Classi	-10.9578
▁neutral	-10.9578
2009)	-10.9579
ör	-10.9579
▁Spooner	-10.958
▁Turk	-10.9581
transferase	-10.9581
▁upset	-10.9581
*	-10.9581
▁Samaritan	-10.9581
dendrochronologi	-10.9581
▁Amoako	-10.9581
▁Anabaptism	-10.9581
▁Antoinette	-10.9581
▁Australasia	-10.9581
▁Collector	-10.9581
▁Crozier	-10.9581
▁Leithart	-10.9581
▁Ordination	-10.9581
▁Poznań	-10.9581
▁evacuat	-10.9581
▁hybrid	-10.9581
▁punctu	-10.9581
▁sacris	-10.9581
▁smooth	-10.9581
.[	-10.9581
Domodedovo	-10.9581
Drunk	-10.9581
EGYPT	-10.9581
GNAMPA	-10.9581
Huahong	-10.9581
Illinois	-10.9581
Jacobi	-10.9581
Kropotkin	-10.9581
Particular	-10.9581
PubMed	-10.9581
SNDRI	-10.9581
Sikuani	-10.9581
\	-10.9581
asvizh	-10.9581
chmiadzin	-10.9581
cidentally	-10.9581
fficient	-10.9581
imbibing	-10.9581
mphitheatre	-10.9581
§	-10.9581
Ø	-10.9581
â	-10.9581
æ	-10.9581
и	-10.9581
▁124408	-10.9581
▁1506-1508	-10.9581
▁15×15	-10.9581
▁Aberdeen	-10.9581
▁Amateur	-10.9581
▁Anglican	-10.9581
▁Antwerp	-10.9581
▁Arkansas	-10.9581
▁Askøybroen	-10.9581
▁Babylon	-10.9581
▁Beltrami	-10.9581
▁Bermuda	-10.9581
▁Bolesław	-10.9581
▁Buthaina	-10.9581
▁Byfjorden	-10.9581
▁Caucasus	-10.9581
▁Congregation	-10.9581
▁Croatia	-10.9581
▁Crowther	-10.9581
▁Dalrymple	-10.9581
▁Dialogue	-10.9581
▁Dimension	-10.9581
▁Eshnunna	-10.9581
▁Ferguson	-10.9581
▁Filoteo	-10.9581
▁Florida	-10.9581
▁Gnampa	-10.9581
▁Gudzulla	-10.9581
▁Hyperallergic	-10.9581
▁Inquisitor	-10.9581
▁Integration	-10.9581
▁Israel	-10.9581
▁Kayseri	-10.9581
▁Keulen	-10.9581
▁Kleppestø	-10.9581
▁LADAR	-10.9581
▁LNFS	-10.9581
▁Launceston	-10.9581
▁Lehmkuhl	-10.9581
▁Liturgica	-10.9581
▁Mallorca	-10.9581
▁Mandaeism	-10.9581
▁Margaret	-10.9581
▁Mazowiecki	-10.9581
▁McLellan	-10.9581
▁Mediterranean	-10.9581
▁Metacritic	-10.9581
▁Minnesota	-10.9581
▁Nonthaburi	-10.9581
▁Orchestra	-10.9581
▁Orphanage	-10.9581
▁Ouazzani	-10.9581
▁Palindrome	-10.9581
▁Pixel	-10.9581
▁Revisited	-10.9581
▁Ruoxinlin	-10.9581
▁Scrabbl	-10.9581
▁Stewart	-10.9581
▁Styria	-10.9581
▁Tanjore	-10.9581
▁Tomatoes	-10.9581
▁Tuscany	-10.9581
▁Vengeance	-10.9581
▁Venstre	-10.9581
▁Vientiane	-10.9581
▁Waitangi	-10.9581
▁Wiltshire	-10.9581
▁Yerevan	-10.9581
▁absolute	-10.9581
▁abstentions	-10.9581
▁abstract	-10.9581
▁adapted	-10.9581
▁antiquity	-10.9581
▁athlete	-10.9581
▁broadsheet	-10.9581
▁chapter	-10.9581
▁descendants	-10.9581
▁eccentric	-10.9581
▁foreigners	-10.9581
▁fragment	-10.9581
▁fulfill	-10.9581
▁goodwill	-10.9581
▁grenadill	-10.9581
▁holidays	-10.9581
▁inhibition	-10.9581
▁integrals	-10.9581
▁integration	-10.9581
▁intellectual	-10.9581
▁jurisdictions	-10.9581
▁landscaped	-10.9581
▁lanternfish	-10.9581
▁magistrate	-10.9581
▁manufacture	-10.9581
▁marriage	-10.9581
▁mechanism	-10.9581
▁neighbour	-10.9581
▁oblig	-10.9581
▁obstacle	-10.9581
▁occupation	-10.9581
▁pivotal	-10.9581
▁ridicul	-10.9581
▁shredded	-10.9581
▁societies	-10.9581
▁subservience	-10.9581
▁subsidiaries	-10.9581
▁substantially	-10.9581
▁syllables	-10.9581
▁trouble	-10.9581
▁unsuccessful	-10.9581
▁Çakir	-10.9581
▁Özgüç	-10.9581
スリングス	-10.9581
▁Hoxha	-10.9581
▁divorc	-10.9581
Anatomica	-10.9581
drunk	-10.9581
earwater	-10.9581
odynamic	-10.9581
▁(1962–6	-10.9581
▁Dorothy	-10.9581
▁Patriarch	-10.9581
▁Suzdal	-10.9581
▁arrested	-10.9581
▁assassin	-10.9581
▁candidate	-10.9581
▁channel	-10.9581
▁clumsy	-10.9581
▁commemorate	-10.9581
▁cylind	-10.9581
▁emulates	-10.9581
▁environment	-10.9581
▁exclusive	-10.9581
▁fabric	-10.9581
▁petition	-10.9581
▁postponed	-10.9581
▁potential	-10.9581
▁scandal	-10.9581
1-04	-10.9581
Auckland	-10.9581
Crosaire	-10.9581
Goldwyn	-10.9581
▁"[	-10.9581
▁Entertain	-10.9581
▁Hoxton	-10.9581
▁Matsuo	-10.9581
▁Podanin	-10.9581
▁Religion	-10.9581
▁Shrine	-10.9581
▁Similar	-10.9581
▁flexibility	-10.9581
▁guilt	-10.9581
▁infinity	-10.9581
▁kidnap	-10.9581
▁sculptor	-10.9581
▁torrid	-10.9581
Hetman	-10.9581
Telugu	-10.9581
bizarre	-10.9581
▁CEO	-10.9581
▁Scandal	-10.9581
▁bireme	-10.9581
▁competitor	-10.9581
▁helmet	-10.9581
▁strateg	-10.9581
Sheikh	-10.9581
Tête	-10.9581
llustrious	-10.9581
nthusiast	-10.9581
sweetheart	-10.9581
▁Brøsta	-10.9581
▁Problem	-10.9581
▁Trilogy	-10.9581
5–17	-10.9581
5–190	-10.9581
FNTA	-10.9581
▁illustrate	-10.9581
uthenticat	-10.9581
▁Curtis	-10.9581
▁triremes	-10.9581
▁colleague	-10.9581
▁decisive	-10.9581
exciting	-10.9581
gooder	-10.9581
▁Abstract	-10.9581
▁Emeritus	-10.9581
▁mislead	-10.9581
▁orthography	-10.9581
▁retailer	-10.9581
▁quadri	-10.9581
precedent	-10.9581
▁Malaysia	-10.9581
▁Windmill	-10.9581
▁corpor	-10.9581
▁illness	-10.9581
centimetre	-10.9581
▁Akkad	-10.9581
▁Genealog	-10.9581
▁Giorgi	-10.9581
▁Jeremy	-10.9581
▁Leandro	-10.9581
▁(3,46	-10.9581
▁Dalmat	-10.9581
thletic	-10.9581
▁Lounge	-10.9581
▁abiye	-10.9581
▁historian	-10.9581
▁repeal	-10.9581
▁Reversal	-10.9581
Accident	-10.9581
▁Kolmar	-10.9581
▁Tunisia	-10.9581
▁sporadic	-10.9581
ス	-10.9581
Daisuke	-10.9581
▁draft	-10.9581
▁unusual	-10.9581
▁Urban	-10.9581
▁contribut	-10.9581
▁mistaken	-10.9581
▁Craft	-10.9581
▁decrease	-10.9581
▁delegat	-10.9581
▁sensitiv	-10.9581
▁Hipkins	-10.9581
▁Tulsa	-10.9581
▁changing	-10.9581
▁withdraw	-10.9581
/196	-10.9581
heartlessly	-10.9581
▁Black	-10.9581
8-1983	-10.9581
RAGI	-10.9581
ocytes	-10.9581
▁escalate	-10.9581
▁Hetfield	-10.9581
▁attested	-10.9581
▁organised	-10.9581
▁fertil	-10.9581
▁Grothe	-10.9581
アル	-10.9581
▁micro	-10.9581
arthquake	-10.9581
▁grocer	-10.9581
MIM	-10.9581
▁diminuti	-10.9581
▁integrate	-10.9581
▁advert	-10.9581
▁twigs	-10.9581
▁priesthood	-10.9581
▁Flanders	-10.9581
▁creole	-10.9582
orticultural	-10.9582
▁Focus	-10.9582
▁download	-10.9582
▁hpd	-10.9582
lozoa	-10.9582
▁Revival	-10.9582
ocephal	-10.9582
▁remote	-10.9582
▁Comox	-10.9582
▁jazz	-10.9582
▁Qatar	-10.9582
satisf	-10.9582
▁Legend	-10.9582
▁librar	-10.9582
▁Fatima	-10.9582
▁loiter	-10.9582
▁Marconi	-10.9582
▁Christmas	-10.9582
▁Petersburg	-10.9582
feathers	-10.9582
▁Lightning	-10.9582
▁Bonta	-10.9582
▁Pratt	-10.9582
▁ermine	-10.9582
lexifie	-10.9582
▁proceedings	-10.9582
▁$150	-10.9582
▁Fuji	-10.9582
▁adverb	-10.9582
▁heretical	-10.9582
ambara	-10.9582
▁patient	-10.9582
▁Hudson	-10.9582
▁Termina	-10.9582
HOM	-10.9582
▁Athens	-10.9582
xcellence	-10.9582
▁patrol	-10.9582
▁lodge	-10.9582
▁worldwide	-10.9582
▁concourse	-10.9582
▁volcano	-10.9582
▁1801	-10.9582
▁Monarch	-10.9582
spects	-10.9582
▁Maiden	-10.9582
▁Women	-10.9582
endlessly	-10.9582
▁(9.8	-10.9582
▁BANK	-10.9582
▁adjusted	-10.9582
▁corrupt	-10.9582
▁province	-10.9582
▁expensive	-10.9582
▁archaeologists	-10.9582
▁Ballet	-10.9582
▁Yoshi	-10.9582
▁revolution	-10.9582
▁Evangelism	-10.9582
▁Competiti	-10.9582
▁familiar	-10.9582
ogenin	-10.9582
▁Visual	-10.9582
▁Lucia	-10.9582
oteric	-10.9583
▁978-0-8	-10.9583
▁mystical	-10.9583
▁quirk	-10.9583
▁assessment	-10.9583
▁Livorn	-10.9583
▁Medicine	-10.9583
▁Barnum	-10.9583
cowardly	-10.9583
▁vegeta	-10.9583
▁exchange	-10.9583
▁1798–	-10.9583
▁Columb	-10.9583
dahar	-10.9583
2,1,2	-10.9583
▁motorway	-10.9583
▁monster	-10.9583
ERR	-10.9583
▁chador	-10.9583
▁quasi	-10.9583
▁emerge	-10.9583
▁coordinat	-10.9583
EN	-10.9583
dealing	-10.9583
▁Laïcité	-10.9583
▁Township	-10.9583
▁Oakl	-10.9583
▁hammer	-10.9583
▁spoil	-10.9583
–22	-10.9583
▁Keynes	-10.9583
▁Graft	-10.9583
▁Issue	-10.9583
▁1957.	-10.9583
▁Pharma	-10.9583
▁(10)	-10.9584
▁Ravine	-10.9584
▁venue	-10.9584
▁0-8	-10.9584
▁Multi	-10.9584
▁phonolog	-10.9584
▁Coffe	-10.9584
▁bullet	-10.9584
▁Choi	-10.9584
▁Jeff	-10.9584
▁adult	-10.9584
▁altered	-10.9584
▁Orig	-10.9584
▁scarf	-10.9584
▁Hindi	-10.9584
▁Reconstructi	-10.9584
▁memorial	-10.9584
▁$7	-10.9584
abri	-10.9584
▁absent	-10.9584
▁terminus	-10.9584
▁endanger	-10.9584
▁1828.	-10.9584
▁sphere	-10.9584
Jam	-10.9584
▁Belang	-10.9584
▁Marino	-10.9584
▁kippah	-10.9584
▁somehow	-10.9584
ollywood	-10.9584
Murray	-10.9584
▁Fantas	-10.9585
▁cruise	-10.9585
▁missile	-10.9585
▁Nazi	-10.9585
▁ministry	-10.9585
▁conversation	-10.9585
▁Monster	-10.9585
▁Enix	-10.9585
▁corset	-10.9585
▁commence	-10.9585
▁infring	-10.9585
▁1870	-10.9585
▁guitarist	-10.9585
▁Pisa	-10.9585
▁Soccer	-10.9585
▁manner	-10.9586
▁Kiln	-10.9586
▁Ashton	-10.9586
▁domestically	-10.9586
▁(2,7	-10.9586
wē	-10.9586
▁spars	-10.9586
▁Photograph	-10.9586
▁headstone	-10.9586
▁Merit	-10.9586
▁Zag	-10.9586
wickedness	-10.9586
▁1700	-10.9587
▁Stephenson	-10.9587
▁Secretary	-10.9587
▁silent	-10.9587
▁Warsaw	-10.9587
▁Regent	-10.9587
▁Storage	-10.9587
▁Galen	-10.9587
▁prison	-10.9587
▁Moroccan	-10.9588
▁Vlor	-10.9588
▁journalist	-10.9588
▁Vladi	-10.9588
▁risk	-10.9588
▁safe	-10.9588
▁Preview	-10.9588
▁Contin	-10.9588
▁Raj	-10.9588
▁1512	-10.9588
▁1964	-10.9588
▁Yusu	-10.9588
▁dictionary	-10.9588
Bancopoli	-10.9588
▁sacked	-10.9588
▁seabird	-10.9588
dcast	-10.9588
▁soundtrack	-10.9589
USAF	-10.9589
▁scarves	-10.9589
▁priest	-10.9589
▁farm	-10.9589
▁Reform	-10.9589
▁Ahmad	-10.9589
▁555	-10.9589
9-18	-10.9589
▁Minne	-10.9589
▁Recogni	-10.9589
▁legi	-10.9589
▁Dyna	-10.9589
▁Khalif	-10.9589
▁Event	-10.959
▁numerals	-10.959
▁Fabri	-10.959
▁Inspec	-10.959
▁utilit	-10.959
▁witty	-10.959
▁lbf	-10.959
▁Popp	-10.959
Kanesh	-10.9591
rlington	-10.9591
▁colonial	-10.9591
▁borrow	-10.9591
▁recognition	-10.9591
10–11	-10.9591
▁primate	-10.9591
muddled	-10.9592
stuff	-10.9592
▁Census	-10.9592
ensus	-10.9592
metry	-10.9592
▁swim	-10.9592
▁Plater	-10.9592
▁Galli	-10.9592
▁1974–	-10.9593
▁turb	-10.9593
ennial	-10.9593
▁Buck	-10.9593
▁fatal	-10.9593
Wauna	-10.9593
▁Launch	-10.9593
▁Stories	-10.9593
▁McK	-10.9593
▁Promot	-10.9593
plum	-10.9593
▁smash	-10.9593
keti	-10.9593
discourse	-10.9594
bolition	-10.9594
▁Feet	-10.9594
▁secur	-10.9594
▁Tribunal	-10.9594
▁spice	-10.9594
▁Elite	-10.9594
▁Baba	-10.9595
▁Fiction	-10.9595
▁blades	-10.9595
▁susumb	-10.9595
DOG	-10.9595
▁Article	-10.9596
▁Alexandri	-10.9596
▁Survey	-10.9596
▁broadly	-10.9597
▁Under	-10.9597
▁category	-10.9597
▁easily	-10.9597
▁quickly	-10.9597
▁Albert	-10.9597
▁1800	-10.9597
▁Wode	-10.9597
zens	-10.9598
▁Grid	-10.9598
▁Mega	-10.9598
▁parking	-10.9598
rizon	-10.9598
▁stopping	-10.9598
partisan	-10.9599
rtex	-10.9599
▁interpretation	-10.9599
▁goose	-10.9599
▁Prison	-10.9599
nivers	-10.9599
54	-10.9599
▁Tax	-10.9599
▁Kru	-10.96
xamples	-10.96
icifolium	-10.96
▁localities	-10.96
▁(1966–6	-10.9601
Everyman	-10.9601
▁analyst	-10.9601
▁(1995-20	-10.9601
▁statute	-10.9601
▁patent	-10.9601
Peacemak	-10.9602
▁Kris	-10.9602
8,000	-10.9602
▁unknow	-10.9603
▁starving	-10.9603
▁academia	-10.9603
▁agent	-10.9603
peake	-10.9604
Penny	-10.9604
▁enforcement	-10.9604
▁everyone	-10.9604
PP	-10.9604
▁Function	-10.9605
▁arranged	-10.9605
▁Bern	-10.9605
atherine	-10.9605
▁Stati	-10.9605
▁pdes	-10.9605
▁Islamism	-10.9605
▁negotiat	-10.9605
▁Dunl	-10.9605
▁craz	-10.9605
▁VE	-10.9605
▁protein	-10.9606
▁motor	-10.9606
▁amalgam	-10.9606
▁cutting	-10.9606
▁Exhibitor	-10.9606
▁Link	-10.9607
▁memor	-10.9607
carf	-10.9608
keeper	-10.9608
fer	-10.9608
▁Motion	-10.9608
▁obscur	-10.9609
ccessibility	-10.9609
▁repeated	-10.9609
penetra	-10.961
▁Mathers	-10.961
▁cancelled	-10.961
▁floor	-10.961
▁creator	-10.961
▁firm	-10.9611
▁preserved	-10.9611
▁Radio	-10.9611
tivity	-10.9611
▁combat	-10.9611
▁promotion	-10.9612
bars	-10.9612
▁(1988)	-10.9612
Stickle	-10.9612
▁1857	-10.9612
othy	-10.9612
▁Emerg	-10.9613
▁thrill	-10.9613
▁alleged	-10.9613
▁blame	-10.9613
ikh	-10.9614
▁controversial	-10.9614
▁Apple	-10.9614
▁vers	-10.9614
6–4	-10.9614
▁Lock	-10.9615
▁slow	-10.9615
▁Actresses	-10.9617
▁Learn	-10.9617
▁10,000	-10.9617
▁Max	-10.9617
legg	-10.9617
▁insight	-10.9618
▁1985	-10.9618
enefit	-10.9618
▁WW	-10.9619
silis	-10.9619
äu	-10.9619
▁tuning	-10.9619
▁Present	-10.9619
▁Vertic	-10.9619
▁golfer	-10.962
Slave	-10.962
▁walk	-10.962
▁Difference	-10.962
BU	-10.9621
▁clade	-10.9621
▁sym	-10.9621
eeding	-10.9621
▁Symp	-10.9622
crypt	-10.9622
▁Dunn	-10.9622
▁(8)	-10.9623
▁graduating	-10.9623
cogniti	-10.9623
▁faulty	-10.9623
smart	-10.9624
▁1883	-10.9624
°2	-10.9624
▁sq	-10.9624
▁plate	-10.9625
▁resume	-10.9625
▁Miki	-10.9625
▁112	-10.9625
82%	-10.9625
▁stew	-10.9626
bina	-10.9626
▁1914	-10.9626
▁Origin	-10.9627
proportion	-10.9627
Litera	-10.9627
▁Manor	-10.9627
▁hyp	-10.9628
▁Mallo	-10.9628
▁pop	-10.9629
▁locality	-10.9629
suko	-10.9629
SIS	-10.963
Peculiar	-10.963
▁negotiation	-10.963
▁faster	-10.963
IO	-10.9631
Enigmatist	-10.9631
▁1832	-10.9632
▁losses	-10.9632
knight	-10.9633
èse	-10.9633
stated	-10.9633
etti	-10.9634
▁excavation	-10.9635
▁Commissioner	-10.9636
ause	-10.9636
▁1912	-10.9636
▁Civi	-10.9637
▁seventy	-10.9637
▁1,000	-10.9637
Advil	-10.9637
▁yet	-10.9637
▁Blin	-10.9638
▁Wat	-10.9638
ontext	-10.9638
▁Stone	-10.9638
▁1976	-10.9638
▁winger	-10.9642
arehouses	-10.9643
profile	-10.9643
▁Odd	-10.9643
▁Leba	-10.9643
▁Brown	-10.9644
▁fingerpick	-10.9644
▁Shout	-10.9646
▁operator	-10.9646
angry	-10.9647
▁Canal	-10.9647
▁determined	-10.9647
▁lime	-10.9647
▁Simon	-10.9647
▁Hawk	-10.9647
▁Fair	-10.9647
▁(68.	-10.9648
▁Boutha	-10.9648
▁Lyc	-10.9648
▁approve	-10.9648
▁Register	-10.9648
95	-10.9648
Jeremiah	-10.9649
swallow	-10.9649
▁Adam	-10.9649
egg	-10.965
▁1833	-10.965
▁1856	-10.965
▁Mail	-10.965
oil	-10.9651
▁Location	-10.9652
▁tender	-10.9653
upsetting	-10.9653
One	-10.9654
▁continuous	-10.9654
▁consistently	-10.9654
▁superior	-10.9654
gele	-10.9655
upplement	-10.9655
▁twist	-10.9656
▁Jesus	-10.9657
▁Portugal	-10.9657
ssels	-10.9657
▁subt	-10.9658
▁logger	-10.9658
▁achieve	-10.9659
▁Tak	-10.9659
▁Belt	-10.9659
formed	-10.9659
▁health	-10.966
▁Norman	-10.966
▁Aug	-10.966
▁Breme	-10.9661
▁Approximat	-10.9661
▁ANT	-10.9662
▁lance	-10.9662
tained	-10.9662
▁HM	-10.9663
ndell	-10.9663
▁wires	-10.9663
▁Wood	-10.9664
TA	-10.9665
▁Engineers	-10.9665
▁Indies	-10.9667
▁Chile	-10.9667
▁501	-10.9667
▁Ross	-10.9667
2000).	-10.9668
▁requirement	-10.9668
▁maybe	-10.9669
▁regain	-10.9669
▁diseases	-10.9671
▁Sung	-10.9671
▁transplants	-10.9671
▁threatened	-10.9671
▁viaducts	-10.9671
▁(2001)	-10.9671
▁judgments	-10.9671
pon	-10.9672
pro	-10.9672
▁zones	-10.9672
▁amendments	-10.9672
▁figures	-10.9672
▁shareholder	-10.9672
▁airports	-10.9673
▁lobe	-10.9673
mously	-10.9673
▁hundreds	-10.9673
▁Eye	-10.9673
oft	-10.9674
▁et	-10.9674
▁Cities	-10.9674
itte	-10.9674
▁explained	-10.9674
▁Poir	-10.9675
▁spirits	-10.9675
mira	-10.9675
▁masters	-10.9675
▁rat	-10.9676
▁coil	-10.9676
ord	-10.9676
▁blocked	-10.9676
▁leaf	-10.9677
rality	-10.9677
▁respected	-10.9677
▁trust	-10.9677
ustainability	-10.9678
▁1902	-10.9678
▁Mul	-10.9678
ndless	-10.9679
▁Ocean	-10.9679
▁Cross	-10.9682
▁IC	-10.9682
▁revolt	-10.9683
▁Well	-10.9684
las	-10.9685
LI	-10.9685
▁Critic	-10.9685
▁Flo	-10.9685
▁coaches	-10.9685
nesses	-10.9686
▁Marie	-10.9687
lev	-10.9687
▁army	-10.9688
tom	-10.9688
▁Bloom	-10.9688
▁devil	-10.9688
tono	-10.9689
▁dispute	-10.9691
rious	-10.9691
▁bevel	-10.9691
▁anatomic	-10.9691
vant	-10.9692
▁Ter	-10.9692
▁flesh	-10.9693
▁Kö	-10.9693
▁explo	-10.9694
etter	-10.9695
▁exam	-10.9696
▁gray	-10.9699
▁Shan	-10.9699
▁Carlin	-10.97
cku	-10.97
tures	-10.97
▁topical	-10.9701
▁(17	-10.9701
▁Ir	-10.9703
▁vertic	-10.9703
▁Soul	-10.9703
etting	-10.9704
▁Rich	-10.9706
▁Pul	-10.9706
▁1945	-10.9706
▁(2004).	-10.9706
▁Buen	-10.9706
▁managed	-10.9707
▁lung	-10.9707
olitical	-10.9707
▁Mai	-10.971
▁DO	-10.9711
▁Johns	-10.9711
▁1842	-10.9711
▁organiz	-10.9713
SE	-10.9713
▁(1983	-10.9713
depth	-10.9714
▁Win	-10.9715
riends	-10.9715
ospor	-10.9716
▁104	-10.9717
▁MN	-10.9717
▁Aislin	-10.9719
▁Visit	-10.9719
▁grasse	-10.9719
UND	-10.9722
Ac	-10.9722
▁meeting	-10.9722
▁prepared	-10.9723
▁1834	-10.9723
Am	-10.9723
▁sim	-10.9724
▁Transform	-10.9724
ntage	-10.9724
▁fail	-10.9724
▁convert	-10.9724
IA	-10.9725
▁1950	-10.9726
▁youth	-10.9727
appointment	-10.9727
ictionary	-10.9729
acker	-10.9729
▁arise	-10.9729
icial	-10.9729
▁lane	-10.973
▁conceal	-10.973
▁(9	-10.9731
▁Muk	-10.9735
▁visited	-10.9736
▁contractor	-10.9737
alist	-10.9738
offs	-10.9738
1463	-10.9738
▁Vic	-10.9739
▁forester	-10.974
-1512	-10.974
▁1910	-10.9741
▁Silve	-10.9746
▁103	-10.9746
▁1824	-10.9746
▁Andre	-10.9747
▁Alf	-10.9748
▁emphasis	-10.9748
▁Arauca	-10.975
▁(24	-10.9751
▁guards	-10.9751
▁window	-10.9751
▁Cyprus	-10.9752
▁Penney	-10.9752
▁Cinema	-10.9752
▁Husband	-10.9752
▁Venice	-10.9752
▁Zimbabwe	-10.9752
▁Paradise	-10.9752
+3	-10.9752
▁Violence	-10.9752
▁ferrugineum	-10.9752
▁Standesamt	-10.9753
▁Mahanikaya	-10.9753
▁Found	-10.9755
▁Iran	-10.9755
▁literally	-10.9755
▁Barba	-10.9755
▁Rain	-10.9756
▁scale	-10.9756
▁lady	-10.9756
nchant	-10.9757
▁grammatical	-10.9758
NSC	-10.9758
▁southwest	-10.9759
▁Berlin	-10.976
▁Spo	-10.976
▁stress	-10.9761
Bush	-10.9762
formal	-10.9762
▁TEN	-10.9763
▁folio	-10.9763
▁anonymous	-10.9764
▁rich	-10.9764
▁Poet	-10.9765
▁essentially	-10.9765
▁Fift	-10.9765
▁Boas	-10.9766
▁Wright	-10.9767
▁outlaw	-10.977
▁105	-10.977
▁Sight	-10.977
▁Jab	-10.977
▁1948	-10.977
being	-10.9771
elles	-10.9773
▁Matha	-10.9773
▁2000)	-10.9774
▁lots	-10.9774
furb	-10.9774
▁eats	-10.9779
DAR	-10.9783
4,3	-10.9783
-1991	-10.9784
▁Kol	-10.9784
hin	-10.9785
iki	-10.9786
ings	-10.9786
je	-10.9787
▁strange	-10.9789
▁fails	-10.9789
oster	-10.9791
ncient	-10.9795
▁tendon	-10.9795
▁fees	-10.9797
▁Kais	-10.9801
▁count	-10.9803
mbon	-10.9803
▁Ott	-10.9803
▁Bomb	-10.9804
ibn	-10.9804
ɛn	-10.9804
burgh	-10.9805
▁(8)"	-10.9805
▁format	-10.9806
▁Kenn	-10.9806
▁Rock	-10.981
-20	-10.9811
▁1520	-10.9812
Bun	-10.9812
▁kg	-10.9821
▁comments	-10.9822
sailor	-10.9822
▁jobs	-10.9822
▁models	-10.9822
▁Puzzlers	-10.9823
▁Citations	-10.9824
▁invent	-10.9824
▁shrubs	-10.9824
▁Buildings	-10.9824
▁mandates	-10.9825
▁predecessors	-10.9825
▁vessels	-10.9825
▁dialects	-10.9826
▁Productions	-10.9826
▁Hors	-10.9827
▁cla	-10.9828
▁insert	-10.9828
▁conspi	-10.9829
AA	-10.983
▁Pitt	-10.9837
▁spectacles	-10.9841
▁Hell	-10.9843
▁1953)	-10.9843
▁upro	-10.9846
hitch	-10.9848
▁underst	-10.9848
▁$2	-10.9848
uneducated	-10.9849
1793	-10.9852
zon	-10.9852
▁Chess	-10.9853
1]	-10.9854
42	-10.9855
▁amend	-10.9856
▁1900.	-10.9857
such	-10.9858
▁supplie	-10.9858
▁Balb	-10.9858
alaman	-10.9861
▁constitute	-10.9866
▁Election	-10.9867
▁Rank	-10.9867
kney	-10.9869
▁audiences	-10.9872
ixed	-10.9872
74	-10.9873
▁recognis	-10.9875
kl	-10.9879
▁Agui	-10.9879
▁mode	-10.988
▁confus	-10.9882
▁standing	-10.9889
tí	-10.9889
date	-10.9889
headed	-10.9898
▁thirt	-10.99
▁Bud	-10.99
▁apolog	-10.99
▁Variation	-10.9901
▁Quart	-10.9904
▁Toll	-10.991
▁Combin	-10.9916
akon	-10.992
▁Woo	-10.992
▁1923.	-10.9921
▁Hoo	-10.9922
▁Fe	-10.9922
▁1924.	-10.9923
bo	-10.9924
▁Former	-10.9925
anne	-10.9925
tail	-10.9926
▁Commune	-10.9929
▁Fol	-10.9929
▁Pag	-10.9931
yung	-10.9931
onist	-10.9935
▁prey	-10.9935
nio	-10.9938
▁Isha	-10.994
odern	-10.9941
▁Piet	-10.9942
▁Gyu	-10.9944
atus	-10.9944
IMA	-10.9945
utan	-10.9946
▁Rout	-10.995
▁SH	-10.9953
▁9.1	-10.9962
▁2005)	-10.9963
novation	-10.9963
▁Dust	-10.9964
▁hands	-10.9968
▁quint	-10.9969
▁waters	-10.9969
▁48	-10.9971
▁Antiqua	-10.9972
▁vowe	-10.9972
▁Rev	-10.9973
▁verbs	-10.9977
lsewhere	-10.9977
adem	-10.9979
nada	-10.998
▁principles	-10.9981
▁committees	-10.9981
security	-10.9982
▁lawyers	-10.9983
▁rework	-10.9983
▁earth	-10.9985
▁campaigns	-10.9986
overturned	-10.9986
tely	-10.9991
▁seeing	-10.9992
▁(181	-10.9994
▁factor	-10.9999
▁Loc	-10.9999
▁Wilder	-11.0002
By	-11.0002
▁spokes	-11.0008
rphan	-11.0009
anek	-11.0009
▁warehouses	-11.0009
▁sti	-11.0012
▁Comm	-11.0016
▁slop	-11.0019
shid	-11.0019
▁Elli	-11.0023
▁cold	-11.0024
▁physic	-11.0024
▁straight	-11.0028
▁Sunnah	-11.003
▁dist	-11.0039
▁Fitn	-11.0041
itus	-11.0046
rning	-11.0052
▁Ear	-11.0053
▁foot	-11.0053
▁implicat	-11.0057
▁increase	-11.0057
igger	-11.0061
▁Hand	-11.0061
▁Hatt	-11.0064
diff	-11.0066
eaten	-11.0069
mbass	-11.0071
ib	-11.0072
xter	-11.0072
▁Cind	-11.0074
▁rele	-11.0081
stateless	-11.0084
▁Zi	-11.009
▁cart	-11.0094
%).	-11.0096
▁Gros	-11.0097
▁1977	-11.0101
tür	-11.0108
shing	-11.0111
fi	-11.0118
▁1819.	-11.0121
▁Malt	-11.0122
iness	-11.0123
▁backward	-11.0123
▁2016:	-11.0125
▁cryptically	-11.0127
urabi	-11.0131
ages	-11.0131
▁Vr	-11.0133
ible	-11.0136
–183	-11.0136
▁Pod	-11.0138
▁objects	-11.0138
▁conflicts	-11.0139
▁Guitars	-11.0139
▁qu	-11.0139
▁Languages	-11.014
sɛ	-11.014
▁represented	-11.0144
▁bloo	-11.0144
oshi	-11.0145
tym	-11.0147
iction	-11.0151
aptized	-11.0152
17	-11.0153
69	-11.0156
AR	-11.0157
▁deals	-11.0158
▁push	-11.0166
EIT	-11.0178
opat	-11.0181
crib	-11.0183
▁ar	-11.0186
▁AN	-11.0186
▁(1963	-11.0186
▁Rest	-11.0187
▁oil	-11.0199
▁21.	-11.0204
hna	-11.0208
▁2011)	-11.0209
▁parish	-11.0213
gendered	-11.0219
▁ed	-11.023
icin	-11.023
▁flower	-11.0231
left	-11.0233
belli	-11.0234
▁154	-11.0235
cholar	-11.0235
▁pronoun	-11.0238
▁Lead	-11.0248
photo	-11.0248
▁Gh	-11.0254
▁shape	-11.0255
▁lock	-11.0259
▁gull	-11.026
▁Bouth	-11.0262
▁Hon	-11.0263
terrorists	-11.0263
▁Ku	-11.0263
rical	-11.0264
ium	-11.0276
▁herb	-11.0277
▁labels	-11.0278
▁termina	-11.0281
▁urgen	-11.0285
▁Mele	-11.0286
▁conventions	-11.0288
▁row	-11.0294
▁whales	-11.0294
▁IT	-11.0296
▁Caliphs	-11.0298
refer	-11.03
ering	-11.03
iscover	-11.0304
▁Equ	-11.0306
Through	-11.0307
▁(1995	-11.0308
mounted	-11.0312
adill	-11.0313
▁populat	-11.0317
▁210	-11.0317
▁0.0	-11.0318
▁Over	-11.032
mah	-11.0323
▁CD	-11.033
▁Indi	-11.033
gli	-11.0331
▁pure	-11.0338
▁Militar	-11.0339
▁dig	-11.0342
ana	-11.0342
▁ideas	-11.0353
,57	-11.0359
▁mis	-11.0363
25-6	-11.0368
▁disast	-11.0371
ostensible	-11.0372
ero	-11.0372
▁attract	-11.0377
mson	-11.0379
kha	-11.038
ttes	-11.0388
▁Lone	-11.039
▁metres	-11.0402
▁Heart	-11.0405
kes	-11.0407
▁deva	-11.0408
Ne	-11.0415
▁Mig	-11.0417
anifest	-11.0442
▁rearrange	-11.0443
tz	-11.0444
▁empt	-11.0446
ald	-11.0446
ailure	-11.0452
▁(1.	-11.0453
▁fields	-11.0454
commo	-11.0455
▁1,05	-11.0457
▁rod	-11.0459
van	-11.0461
▁Bag	-11.0464
ahogany	-11.0464
IN	-11.0466
ager	-11.0468
quote	-11.047
48.	-11.0471
▁Nor	-11.0471
▁eng	-11.0473
▁$38	-11.0477
▁deer	-11.0478
▁Str	-11.0485
▁inclusi	-11.0487
▁Too	-11.0487
▁rig	-11.0488
▁Sof	-11.0496
▁Are	-11.05
companies	-11.0504
▁Pet	-11.0505
▁Main	-11.0508
ied	-11.0509
Water	-11.0511
Bis	-11.0524
gare	-11.0526
ived	-11.0532
hada	-11.054
ppo	-11.0547
etallic	-11.055
▁lot	-11.0551
89	-11.0554
▁things	-11.0563
▁cycle	-11.0566
sty	-11.0566
moni	-11.0569
▁fu	-11.0577
▁(2)	-11.0579
▁skin	-11.0583
drum	-11.0587
▁bad	-11.0587
▁178	-11.0588
run	-11.059
him	-11.0596
▁eat	-11.0596
▁fa	-11.0596
▁olde	-11.0596
logist	-11.0597
▁sad	-11.0597
Initially	-11.0601
edded	-11.0608
130	-11.061
▁libert	-11.0611
▁(1996)	-11.0611
▁throw	-11.0613
1992–	-11.0615
▁friends	-11.0619
uf	-11.0625
▁diver	-11.0632
ssel	-11.0636
Da	-11.0637
lay	-11.0639
▁6-	-11.0639
▁Tro	-11.064
lighte	-11.0642
night	-11.066
equel	-11.0662
▁theme	-11.0664
tantly	-11.0667
▁Mh	-11.0671
▁examin	-11.0684
moderniz	-11.0692
▁programm	-11.0693
▁Stav	-11.0696
▁self	-11.0701
rk	-11.0701
fo	-11.0701
▁Site	-11.0722
▁gir	-11.0728
kka	-11.0731
creen	-11.0732
▁nor	-11.0732
▁passes	-11.0733
▁reside	-11.0734
loses	-11.0735
mino	-11.0747
lived	-11.0748
lock	-11.0757
▁positions	-11.0757
▁Ris	-11.0762
▁streets	-11.0763
▁females	-11.0766
▁(66	-11.077
avani	-11.0774
▁destructi	-11.0774
rone	-11.0776
▁discre	-11.0782
▁expe	-11.0806
▁Solver	-11.0814
dark	-11.0822
equi	-11.0824
▁Solo	-11.083
Trev	-11.0845
welcom	-11.0845
▁financ	-11.0848
allow	-11.0848
▁researcher	-11.0854
cr	-11.086
Sy	-11.0865
ranged	-11.0866
heir	-11.087
nnual	-11.087
139	-11.0873
▁define	-11.088
say	-11.0881
▁Et	-11.0885
onic	-11.0888
mal	-11.09
▁Dum	-11.0913
1.	-11.0915
04	-11.0922
07	-11.0925
▁stre	-11.0926
▁Cat	-11.0926
▁Ara	-11.0927
▁prohibitions	-11.0935
cu	-11.0936
hum	-11.0937
▁rib	-11.0937
actory	-11.0941
▁lose	-11.0942
▁Hur	-11.0946
▁Bir	-11.0956
avate	-11.0958
▁1960.	-11.0962
maxi	-11.0963
blast	-11.0965
ati	-11.0975
▁shut	-11.0975
▁Bro	-11.0983
nks	-11.0984
phones	-11.0988
▁Less	-11.0998
▁Chantr	-11.1
Johnson	-11.1001
▁Isle	-11.1005
▁leaders	-11.101
cell	-11.1013
Th	-11.1013
▁Recent	-11.102
generati	-11.1027
▁consult	-11.1027
▁(49	-11.1028
ado	-11.1033
tsun	-11.1034
stable	-11.1038
raven	-11.1038
▁miss	-11.1039
▁theory	-11.1041
▁Rus	-11.1049
52	-11.1051
eight	-11.1053
▁designate	-11.1054
rise	-11.1058
SC	-11.1062
▁52	-11.1065
Ste	-11.1066
gly	-11.1068
gor	-11.107
opy	-11.1071
rray	-11.1072
script	-11.1074
▁68	-11.1075
▁citizen	-11.1079
afford	-11.1082
▁schismatics	-11.1085
▁99	-11.1088
gyu	-11.1088
▁scholar	-11.1089
1981)	-11.1095
-44	-11.1095
▁initiat	-11.1102
shah	-11.1109
▁Creed	-11.1111
9.	-11.1115
▁Ab	-11.1115
ovi	-11.112
rchive	-11.1125
erful	-11.1129
▁Hass	-11.113
ubb	-11.1132
▁box	-11.1137
×1	-11.115
2.	-11.116
eadquarters	-11.1171
.2	-11.1177
▁interven	-11.1178
▁wo	-11.1179
▁berr	-11.1184
nalysis	-11.1185
23	-11.1186
▁(194	-11.1189
rac	-11.119
▁sta	-11.1194
▁bene	-11.1196
urka	-11.1197
atalo	-11.1197
2/	-11.1199
0.	-11.12
▁sat	-11.1202
▁reads	-11.1204
▁circu	-11.1207
▁embr	-11.1213
IP	-11.1218
canine	-11.1224
▁DH	-11.1225
stor	-11.1228
▁burkas	-11.1233
▁9,	-11.1235
ests	-11.1236
figur	-11.1247
▁Allen	-11.1256
egan	-11.1256
oming	-11.1257
dministration	-11.1268
▁dat	-11.1283
▁Convers	-11.1289
challenging	-11.1291
lease	-11.1291
▁challeng	-11.1298
▁separati	-11.1304
▁Sc	-11.1306
▁Ind	-11.1325
▁serial	-11.1327
agram	-11.1327
▁Pear	-11.1328
ST	-11.1329
angha	-11.1342
▁hang	-11.1342
▁Tac	-11.135
3),	-11.1358
operat	-11.1363
▁Hung	-11.1365
▁Lin	-11.1366
▁Ras	-11.1371
38	-11.1371
88	-11.1384
▁communi	-11.1385
▁periods	-11.1388
copa	-11.139
iel	-11.139
mon	-11.1391
ua	-11.1392
21)	-11.1397
nkara	-11.1403
liss	-11.1407
▁galle	-11.1407
ingredients	-11.141
ES	-11.1411
tka	-11.1414
cation	-11.142
Str	-11.1423
sive	-11.143
alph	-11.1432
ednes	-11.1437
▁Ont	-11.1439
atin	-11.144
.)	-11.1441
▁identifie	-11.1442
ü	-11.1445
gees	-11.145
cup	-11.1455
▁disse	-11.1455
wer	-11.1458
azil	-11.1463
▁Mann	-11.148
▁missionar	-11.1487
arza	-11.1506
rm	-11.1511
▁reward	-11.1511
emy	-11.152
unds	-11.1523
cop	-11.1527
nment	-11.1532
merge	-11.1535
▁complet	-11.1535
6)	-11.1536
▁Ockhamis	-11.1545
▁standards	-11.1547
▁Nice	-11.1558
▁Sai	-11.1559
▁concert	-11.1561
viv	-11.1572
yama	-11.1589
holes	-11.1594
CH	-11.1623
▁Kan	-11.163
earch	-11.1631
▁crow	-11.1631
▁Nes	-11.1633
▁compa	-11.1641
▁pente	-11.1642
▁mit	-11.1643
▁Genn	-11.1651
OO	-11.1655
lang	-11.1656
▁Pl	-11.1659
jo	-11.1663
▁attacks	-11.1675
older	-11.1676
1776	-11.1693
▁pidgins	-11.1696
ommunity	-11.1701
×2	-11.1701
han	-11.1706
▁thin	-11.172
▁confi	-11.1732
mbassies	-11.1733
▁2022)	-11.1739
▁equi	-11.1746
AND	-11.1746
offers	-11.1752
▁Communi	-11.1763
ret	-11.1765
▁Use	-11.177
ys	-11.1771
–28	-11.1773
ei	-11.1773
-0	-11.1778
ulum	-11.1784
yme	-11.1787
▁Morpholog	-11.1789
▁Chin	-11.1797
▁outrage	-11.1801
erous	-11.1802
▁Conven	-11.1821
▁Sad	-11.1832
▁Ah	-11.1835
▁carri	-11.1837
63	-11.1838
855	-11.185
mer	-11.185
urup	-11.1856
▁che	-11.1857
llow	-11.1865
atha	-11.1873
usa	-11.1878
kyo	-11.1879
eigh	-11.1881
▁181	-11.1884
▁Academi	-11.1885
▁quin	-11.1894
▁Nav	-11.1897
ques	-11.1898
mmond	-11.1902
▁rema	-11.1913
▁Bar	-11.1916
ssibility	-11.1916
tag	-11.1918
dha	-11.1921
ently	-11.1925
30	-11.1939
▁male	-11.1945
▁authori	-11.1948
owned	-11.1949
05	-11.1981
od	-11.1983
ypically	-11.199
dopter	-11.199
▁melo	-11.2
rag	-11.2001
▁perce	-11.2008
▁Pla	-11.2009
nus	-11.2015
raph	-11.2017
▁medi	-11.2025
ancy	-11.2032
8-	-11.2047
▁ki	-11.205
▁Smil	-11.205
AB	-11.2051
remes	-11.2054
▁longe	-11.2059
▁Fru	-11.2075
3000	-11.2077
hy	-11.2079
onstant	-11.2079
eve	-11.2082
rner	-11.209
BM	-11.2098
▁Mat	-11.2099
▁tal	-11.2106
▁conqu	-11.2117
ggest	-11.2123
rab	-11.2125
▁Rot	-11.2133
▁Antoni	-11.2135
▁reta	-11.2138
▁Liv	-11.2147
▁Ring	-11.215
▁item	-11.2159
▁Tex	-11.2161
iers	-11.2164
rawings	-11.2165
▁press	-11.218
▁Les	-11.2182
svi	-11.2187
▁Arde	-11.2193
ival	-11.2198
▁Design	-11.2201
rison	-11.2216
▁Barr	-11.2219
alls	-11.2221
▁(2,	-11.2222
▁ja	-11.2225
▁rec	-11.2226
tler	-11.2227
▁Gol	-11.223
PO	-11.2231
▁rough	-11.2239
▁Ret	-11.2241
ving	-11.2245
▁tonne	-11.2246
arrel	-11.2272
▁Bost	-11.2294
erminated	-11.2295
77	-11.2307
reedom	-11.2307
▁novels	-11.231
hart	-11.231
▁valu	-11.2311
tima	-11.2316
election	-11.2319
▁reg	-11.2328
ars	-11.233
sage	-11.2331
▁147	-11.2332
lenni	-11.2333
▁techn	-11.234
rable	-11.2347
▁Hol	-11.2351
adventure	-11.2358
▁Reed	-11.2367
▁gat	-11.2367
lts	-11.2369
▁Lives	-11.2369
▁Carn	-11.2373
▁continu	-11.2374
improvis	-11.2387
▁fla	-11.2388
cl	-11.239
▁Guid	-11.2409
▁Bell	-11.2415
▁Ani	-11.2417
▁2001.	-11.2419
arrant	-11.2422
arry	-11.2424
hol	-11.2434
UE	-11.2437
▁reverse	-11.2439
6-18	-11.2447
▁subse	-11.2448
ishes	-11.245
rance	-11.2463
suits	-11.2463
span	-11.2466
1987)	-11.2467
▁(198	-11.2477
▁Lis	-11.2483
mid	-11.2487
▁Hy	-11.2491
▁Cin	-11.2493
stri	-11.2506
▁x	-11.2512
logy	-11.2523
tra	-11.2525
sued	-11.2545
84	-11.2546
Fortun	-11.2574
rity	-11.2576
sche	-11.2582
▁Lean	-11.2589
▁committ	-11.2592
▁pea	-11.2592
▁insu	-11.2595
ERMI	-11.2607
atic	-11.2607
2%	-11.2632
▁realize	-11.2634
▁Rum	-11.2636
astic	-11.2637
IL	-11.264
▁purchas	-11.2642
▁rein	-11.2653
▁controlle	-11.2661
enni	-11.2663
Coc	-11.2684
bil	-11.2702
▁sand	-11.2711
▁recon	-11.2713
tum	-11.2724
pt	-11.2751
▁Kum	-11.2757
▁Bor	-11.2761
own	-11.2782
▁Ger	-11.2783
pace	-11.2787
ast	-11.2799
elj	-11.2801
ited	-11.2803
shape	-11.2807
sque	-11.2822
ak	-11.2825
▁Aze	-11.2828
rea	-11.2831
▁Bec	-11.2867
▁deduc	-11.2875
itive	-11.288
▁suppose	-11.2881
mis	-11.2894
ites	-11.2895
87.	-11.2896
tball	-11.29
new	-11.2902
ves	-11.2908
sson	-11.2911
cameo	-11.2916
▁Int	-11.292
▁hardw	-11.2933
▁disappoint	-11.2942
eligious	-11.2952
cutt	-11.2956
itted	-11.2957
▁(23	-11.2957
▁rul	-11.2965
rt	-11.2974
rop	-11.2975
sin	-11.3003
▁sons	-11.3014
bean	-11.3015
▁2012)	-11.3018
lk	-11.3038
iving	-11.3043
▁oppress	-11.3055
▁def	-11.3055
sult	-11.3071
brush	-11.3077
▁Fah	-11.3087
Thi	-11.3088
▁38	-11.3089
thorn	-11.3097
▁Nica	-11.3106
secut	-11.3108
jumb	-11.3111
▁bird	-11.3117
▁Alli	-11.3122
kan	-11.3125
8-2	-11.3145
▁149	-11.3147
ED	-11.315
relate	-11.316
66	-11.3162
probabl	-11.3163
wit	-11.3168
▁sole	-11.3176
ash	-11.3177
▁sav	-11.3181
▁ev	-11.319
▁shop	-11.3194
▁electr	-11.3201
ricks	-11.3203
-5	-11.323
▁ag	-11.3237
▁medic	-11.3246
80)	-11.3253
dministrative	-11.3259
▁consol	-11.3264
▁bench	-11.3268
erie	-11.3285
▁sick	-11.3288
ém	-11.3289
da	-11.3291
ekl	-11.3292
71–19	-11.3297
ented	-11.3298
▁15.	-11.33
▁inva	-11.3302
din	-11.3309
▁banker	-11.3319
▁biolog	-11.3326
equ	-11.3329
▁anagrams	-11.3331
ius	-11.3335
aster	-11.3339
▁Yu	-11.3341
▁declarati	-11.3351
▁mer	-11.3367
▁Situat	-11.338
goro	-11.3387
▁tons	-11.339
▁ro	-11.339
els	-11.3391
▁readi	-11.3392
▁sha	-11.3394
eceded	-11.3398
mak	-11.3399
▁pur	-11.3403
rset	-11.3417
amp	-11.3426
▁inspect	-11.3452
nsider	-11.3457
umber	-11.3461
ails	-11.3472
smo	-11.3473
ffe	-11.3473
unga	-11.3488
bon	-11.3501
istration	-11.3501
wi	-11.3505
ength	-11.3507
ane	-11.3525
▁Ce	-11.3548
▁Toe	-11.3554
▁inc	-11.3559
▁spe	-11.3561
▁der	-11.3566
ession	-11.358
elations	-11.3607
ification	-11.3618
▁sala	-11.3619
ink	-11.362
vention	-11.3634
awful	-11.3637
onel	-11.364
▁Iv	-11.3662
thol	-11.3665
▁Ber	-11.3666
▁Then	-11.367
▁advi	-11.3675
cognito	-11.3676
▁"'	-11.3682
Man	-11.3683
nnes	-11.3692
evitabl	-11.3693
search	-11.3714
▁Ven	-11.3719
▁Sal	-11.3735
asses	-11.3737
▁gen	-11.3738
):	-11.374
02	-11.3746
presented	-11.3752
uri	-11.3755
▁mos	-11.376
▁acco	-11.3766
▁swa	-11.3775
▁Ram	-11.378
lf	-11.3798
▁tw	-11.3799
▁131	-11.3802
▁Financ	-11.3804
ppointment	-11.3827
ivo	-11.3834
sse	-11.3842
▁Sait	-11.3844
▁ab	-11.3847
jer	-11.3857
ventu	-11.3863
arden	-11.3872
▁para	-11.3882
▁des	-11.3904
yp	-11.3913
▁qui	-11.3913
ert	-11.3917
▁educat	-11.3937
lumber	-11.394
0).	-11.3947
solida	-11.3948
llo	-11.3956
▁Hat	-11.3969
866	-11.3975
▁Pic	-11.3987
▁faci	-11.3995
alia	-11.3997
gun	-11.4002
▁Pop	-11.4003
▁Han	-11.4004
1836	-11.4021
2,	-11.4022
ramm	-11.4023
load	-11.403
hibitions	-11.4033
▁assign	-11.4035
▁sho	-11.4036
▁Pal	-11.4036
enz	-11.4037
▁Manage	-11.4039
▁conv	-11.404
sc	-11.4041
▁faces	-11.4042
▁winner	-11.4047
▁easie	-11.4061
actu	-11.4066
clu	-11.4069
▁Sif	-11.4072
nger	-11.4079
generat	-11.4129
▁36	-11.414
rich	-11.4146
portra	-11.4148
▁far	-11.4148
llegia	-11.4148
verb	-11.4152
arne	-11.4153
stance	-11.4164
▁Norfo	-11.4193
divid	-11.4213
As	-11.4219
▁Eth	-11.4222
▁est	-11.4227
1998)	-11.4228
lim	-11.4229
▁derive	-11.4238
Tun	-11.4239
onian	-11.424
▁session	-11.4259
rel	-11.4265
▁ri	-11.4269
amic	-11.4277
Bas	-11.4277
AX	-11.4278
▁Cop	-11.4278
▁Pap	-11.4288
proved	-11.4308
anti	-11.4328
▁Sect	-11.433
▁Tr	-11.4336
▁dr	-11.4341
tioned	-11.4341
Mo	-11.4342
▁formation	-11.4348
Ad	-11.4349
easing	-11.4349
▁oppressi	-11.4349
was	-11.4351
MIT	-11.4359
ften	-11.4371
▁Jo	-11.4393
▁fe	-11.4406
had	-11.4413
ape	-11.4413
Sta	-11.4417
stead	-11.4418
▁('	-11.4427
▁affect	-11.443
▁que	-11.4452
▁suppos	-11.4453
▁Ek	-11.4454
▁tax	-11.4455
▁Os	-11.4456
–18	-11.4459
poster	-11.4466
hey	-11.4468
▁4,	-11.4479
sap	-11.4481
aria	-11.449
utic	-11.4491
sted	-11.4493
▁Red	-11.4493
ropping	-11.4496
sev	-11.4509
▁Ore	-11.451
ater	-11.453
▁penal	-11.454
▁Chr	-11.4548
.1	-11.4558
kinson	-11.4559
sum	-11.4562
cause	-11.4565
di	-11.457
▁promot	-11.4583
▁Corr	-11.4585
tob	-11.4586
46	-11.4588
▁heal	-11.4615
▁sal	-11.4616
mol	-11.4619
▁ge	-11.462
yna	-11.4632
ming	-11.464
▁comple	-11.4641
abi	-11.4661
relat	-11.4661
garde	-11.4669
▁infla	-11.4675
▁jun	-11.468
▁spo	-11.4697
▁Cann	-11.4698
▁mm	-11.4699
Ba	-11.4716
▁seculari	-11.4722
arz	-11.4725
▁Twi	-11.4726
ascinat	-11.4726
▁Rai	-11.4735
heart	-11.4735
▁Ko	-11.4736
▁colon	-11.4757
cke	-11.4759
▁heav	-11.4771
▁revers	-11.4784
▁alon	-11.4796
ony	-11.48
ibb	-11.4801
90	-11.4802
postle	-11.483
CA	-11.4831
oye	-11.4834
▁qualifi	-11.4843
plan	-11.4846
▁Mel	-11.4854
▁10,	-11.4856
onstitutional	-11.4895
–15	-11.4896
olls	-11.4912
usion	-11.4913
ob	-11.4919
erb	-11.4934
▁import	-11.494
▁Per	-11.4942
8–	-11.4945
bit	-11.4948
sis	-11.4957
yster	-11.4971
ives	-11.4975
eng	-11.4975
▁17-	-11.4983
opping	-11.4988
▁Casa	-11.4994
▁fol	-11.4998
dame	-11.5004
07.	-11.5013
▁cite	-11.5013
ogi	-11.503
aging	-11.5035
EC	-11.504
cession	-11.5046
▁entit	-11.5085
eadscarves	-11.5099
unda	-11.5103
stock	-11.5104
21	-11.5108
▁Anton	-11.5119
itche	-11.5128
▁adheren	-11.514
mul	-11.5161
▁Kim	-11.517
alized	-11.5171
terations	-11.519
ained	-11.5191
trea	-11.5191
erci	-11.5195
aye	-11.5211
▁Chi	-11.5217
Yes	-11.5222
fri	-11.5238
▁stu	-11.5238
SA	-11.5248
sibility	-11.5255
▁184	-11.5258
ngsa	-11.5274
▁Cora	-11.5279
au	-11.5292
▁Fre	-11.5298
mani	-11.5307
▁approache	-11.5325
▁Ves	-11.5333
etsk	-11.5334
cil	-11.5352
▁RA	-11.536
ement	-11.5372
cise	-11.5372
▁Sim	-11.5375
71).	-11.5384
▁Pot	-11.5391
turns	-11.5391
rageous	-11.5392
hered	-11.5394
areer	-11.5403
sch	-11.5409
▁compromis	-11.5415
▁substan	-11.5423
tten	-11.5426
▁reli	-11.5428
migrant	-11.5428
Meth	-11.545
quire	-11.5455
uses	-11.546
uc	-11.5461
▁Acc	-11.5467
▁185	-11.5472
▁news	-11.5472
Ch	-11.5478
assembl	-11.5479
yn	-11.548
secu	-11.5485
Inter	-11.5489
▁mytholog	-11.5489
▁CAN	-11.5497
36	-11.5501
▁Embass	-11.5509
▁Prima	-11.5522
aban	-11.5526
▁Ana	-11.5532
▁Doc	-11.5542
eth	-11.5576
GO	-11.5577
ject	-11.558
uzz	-11.5581
▁cardi	-11.5584
▁wearer	-11.5586
Student	-11.5594
njury	-11.5595
ET	-11.5614
nor	-11.5623
▁Amo	-11.5623
nate	-11.5638
▁201	-11.5657
▁touris	-11.5658
44	-11.5659
▁vict	-11.566
▁Perform	-11.5668
stair	-11.5673
DIN	-11.5674
▁Rob	-11.5678
▁Relat	-11.5682
cene	-11.5683
uge	-11.5684
1).	-11.5704
▁Spe	-11.5705
▁MA	-11.5705
imi	-11.5705
lab	-11.5706
▁Dani	-11.5712
alle	-11.5714
wis	-11.5721
▁restricti	-11.5725
▁hon	-11.5741
mas	-11.5755
nail	-11.5757
▁Bie	-11.5759
▁Ockham	-11.5764
▁clam	-11.5775
chie	-11.579
Nur	-11.5796
uces	-11.5796
wing	-11.5812
erba	-11.5817
VC	-11.5819
ushy	-11.5838
lingu	-11.5846
yoon	-11.5862
tsk	-11.5878
mposed	-11.588
GI	-11.5883
miling	-11.5896
▁Ethi	-11.5902
1,	-11.5902
▁Erlan	-11.5903
▁(300	-11.5904
▁53	-11.5904
DS	-11.5911
▁serv	-11.592
▁fishe	-11.5921
rra	-11.5932
gr	-11.5934
▁nu	-11.5939
iguo	-11.5949
721	-11.5951
zy	-11.5959
▁accuse	-11.5961
▁ingredient	-11.5967
near	-11.5969
spir	-11.5987
ochr	-11.5989
ctu	-11.6005
kara	-11.6007
▁fur	-11.601
▁(8	-11.6015
responsibl	-11.6017
edonia	-11.6039
Text	-11.604
annes	-11.6044
ility	-11.6049
arg	-11.6054
▁Fer	-11.6055
perations	-11.6076
▁400	-11.61
▁ball	-11.6103
▁Enigma	-11.611
▁participate	-11.611
▁melodi	-11.6111
sur	-11.6113
▁assu	-11.612
ER	-11.6122
▁9,0	-11.6124
close	-11.6133
▁Ration	-11.6142
gno	-11.6144
▁Laur	-11.6168
chten	-11.617
▁NA	-11.6179
iz	-11.618
sembl	-11.618
▁fea	-11.6186
▁pil	-11.6187
tivated	-11.6191
▁hole	-11.62
feld	-11.6204
221-	-11.6226
kins	-11.6236
▁econom	-11.6243
ummar	-11.6258
▁PS	-11.6267
scend	-11.6271
▁compos	-11.6272
▁Bre	-11.6277
rman	-11.6278
ska	-11.6279
male	-11.6311
62)	-11.6322
▁Independen	-11.6323
bro	-11.6327
esidence	-11.6343
urd	-11.6354
ordin	-11.6356
▁Ala	-11.6372
Mi	-11.638
9).	-11.6394
Explorers	-11.6411
aya	-11.6414
here	-11.6435
▁res	-11.6443
reg	-11.6449
eidel	-11.6457
▁rem	-11.6463
strange	-11.6464
▁scholars	-11.6491
▁citizens	-11.6496
cquisitions	-11.6496
tual	-11.651
nal	-11.6513
▁compare	-11.6515
mini	-11.6518
stration	-11.6521
▁discusse	-11.6528
Ban	-11.6528
▁boxe	-11.6531
▁prima	-11.6544
▁possib	-11.6558
cur	-11.6561
ropol	-11.6582
rke	-11.6589
632	-11.6592
till	-11.6594
▁Corne	-11.6597
rod	-11.6611
hour	-11.6612
ration	-11.6622
Carrie	-11.6623
udge	-11.6627
La	-11.6633
eek	-11.6634
▁Staff	-11.6642
▁Gre	-11.665
▁eas	-11.665
▁phone	-11.6652
Kh	-11.6656
ici	-11.6659
▁Morph	-11.6667
table	-11.6669
Harris	-11.6671
▁consulta	-11.6678
dou	-11.6678
AST	-11.6685
▁Emer	-11.6704
▁bur	-11.6711
92	-11.6711
sun	-11.6719
Baptis	-11.673
iye	-11.6731
free	-11.6732
▁prescri	-11.6738
bility	-11.6751
▁Williams	-11.6757
000	-11.676
ians	-11.6778
▁Hong	-11.6781
aband	-11.6783
danger	-11.6785
▁dishe	-11.6811
tel	-11.6816
▁tu	-11.6816
▁(1991	-11.6821
▁commun	-11.6835
hus	-11.6838
128	-11.6844
aj	-11.6845
▁Americans	-11.6851
200-	-11.6856
▁Codi	-11.6865
dition	-11.6866
▁dish	-11.687
br	-11.6874
ign	-11.6881
▁Ag	-11.6883
Hungar	-11.6889
izz	-11.6895
isions	-11.6896
▁Alla	-11.6898
killed	-11.6905
▁overto	-11.6911
2016)	-11.6933
xed	-11.6935
▁pos	-11.6936
arade	-11.694
pag	-11.6951
▁termin	-11.6965
▁IN	-11.6992
▁Res	-11.6993
pend	-11.7027
ison	-11.7034
ires	-11.7036
▁Game	-11.7045
▁tub	-11.7051
ging	-11.7053
enters	-11.7066
▁blue	-11.7068
last	-11.7086
▁compara	-11.7098
▁store	-11.7111
267	-11.7131
▁fir	-11.7131
hang	-11.714
▁(1993	-11.7144
marked	-11.7158
band	-11.7162
ung	-11.7163
▁Met	-11.7168
riles	-11.717
that	-11.7178
▁conclu	-11.7191
68.	-11.7192
▁Nam	-11.7192
▁sevent	-11.7195
haba	-11.7204
CN	-11.7205
▁Rema	-11.721
▁whi	-11.7216
die	-11.7221
enby	-11.7233
▁Nev	-11.7254
Har	-11.7255
▁analys	-11.7258
rned	-11.7258
ailing	-11.7264
1991-	-11.7277
kk	-11.729
▁Kr	-11.7302
yets	-11.7312
▁Lar	-11.7314
etired	-11.7318
ui	-11.7327
▁Pur	-11.7329
ompanies	-11.7338
Of	-11.7342
otten	-11.7342
cus	-11.7342
hier	-11.7349
isual	-11.7356
▁Sve	-11.7372
omot	-11.7374
hancel	-11.7375
OU	-11.7402
▁Zh	-11.7403
ety	-11.7404
▁Lovatt	-11.7424
▁col	-11.7428
any	-11.7438
▁Gau	-11.7443
elig	-11.7444
adquarters	-11.7447
ffin	-11.745
tars	-11.7464
onorable	-11.7471
▁champions	-11.7475
pl	-11.749
uke	-11.7507
▁practi	-11.7524
▁Lau	-11.7542
28-	-11.7557
-19.	-11.7559
tell	-11.7574
eka	-11.7576
rton	-11.7577
▁biologi	-11.7582
▁bl	-11.7595
▁Disab	-11.7616
▁leu	-11.7619
(7,	-11.762
early	-11.7633
▁surviv	-11.7641
36,	-11.7642
vate	-11.7643
].	-11.7646
▁(201	-11.765
▁Draw	-11.7659
ilot	-11.766
escue	-11.768
Con	-11.7681
yle	-11.7686
▁Gam	-11.7691
rup	-11.7717
45	-11.772
▁BO	-11.7736
bak	-11.775
opho	-11.7754
dne	-11.7758
▁Gall	-11.7761
▁educate	-11.7767
ficial	-11.7779
810	-11.7783
▁Cam	-11.7787
▁ostensibl	-11.7791
▁pen	-11.7794
▁mat	-11.7803
ologists	-11.7803
fish	-11.7805
▁Kre	-11.7819
gil	-11.7823
orted	-11.7827
▁Epis	-11.7844
otic	-11.7846
▁5-	-11.7853
aven	-11.787
hon	-11.7879
nnon	-11.7893
2–	-11.7902
ulf	-11.7904
Heads	-11.7908
▁Phi	-11.791
mous	-11.7913
▁192	-11.7914
Fo	-11.7916
▁mount	-11.7923
cats	-11.7935
omposition	-11.7945
ctor	-11.7949
edy	-11.7973
▁$	-11.7977
aro	-11.798
orphology	-11.7981
ms	-11.7985
▁(14	-11.801
▁activ	-11.8024
▁met	-11.8037
3)	-11.8042
azz	-11.8046
ivat	-11.8053
▁worke	-11.8053
06	-11.8053
ps	-11.8054
120	-11.806
EM	-11.8062
▁adj	-11.8063
▁Disco	-11.8065
racy	-11.8066
chr	-11.8067
thus	-11.807
▁considerabl	-11.8076
bass	-11.8077
lites	-11.8083
aged	-11.8085
▁innovati	-11.8088
▁hot	-11.8089
▁Galle	-11.8099
▁ampl	-11.8103
9–	-11.8111
civiliz	-11.8116
▁Dal	-11.8121
▁63	-11.8128
391	-11.8135
1941	-11.814
iate	-11.8141
▁bul	-11.8143
▁temporar	-11.815
cing	-11.8159
lations	-11.8163
▁Fl	-11.8172
▁ju	-11.8179
ountain	-11.8184
▁pot	-11.8188
▁Fle	-11.8191
Nu	-11.8201
▁Priva	-11.8228
inners	-11.823
▁administrat	-11.8232
quarters	-11.8233
hai	-11.8234
87)	-11.8234
hike	-11.8243
▁partners	-11.8249
gency	-11.8256
▁bapt	-11.8268
ined	-11.8269
ugu	-11.8269
pan	-11.8278
hanga	-11.8291
▁Bra	-11.8305
79	-11.8319
adj	-11.832
▁twin	-11.8328
ega	-11.833
▁ta	-11.834
ks	-11.8344
▁bro	-11.8351
hab	-11.8351
themed	-11.8356
sen	-11.836
eration	-11.8373
▁redu	-11.8383
irk	-11.8393
▁pie	-11.8396
▁Tru	-11.8396
put	-11.8396
▁Foot	-11.8398
thos	-11.8405
tened	-11.841
▁Emp	-11.8429
peak	-11.8429
har	-11.843
nase	-11.8436
rba	-11.8451
hips	-11.8452
▁hos	-11.8455
raffic	-11.8455
▁lifte	-11.8456
igned	-11.8459
NT	-11.8478
nica	-11.8484
▁Gosp	-11.8489
ica	-11.8502
lade	-11.8502
nu	-11.8506
▁Sel	-11.8507
▁spoke	-11.8509
emporary	-11.852
▁Obl	-11.8524
9)	-11.8529
eading	-11.8532
term	-11.8536
wee	-11.8537
sad	-11.8597
depress	-11.8602
Muslim	-11.8602
▁diag	-11.8606
endor	-11.863
Conver	-11.8633
avanna	-11.8633
nose	-11.8636
▁stra	-11.8637
▁driv	-11.8652
▁gender	-11.8654
▁Olymp	-11.8657
▁styl	-11.8661
▁Audi	-11.8664
▁Gru	-11.8679
fund	-11.8679
▁anatom	-11.8682
▁hono	-11.8692
ariy	-11.8708
▁quot	-11.8709
Gr	-11.8718
LIN	-11.8724
tall	-11.8729
two	-11.8735
1996).	-11.8743
bird	-11.8757
Head	-11.8762
turn	-11.8763
▁permit	-11.8766
ractical	-11.8769
ivated	-11.8772
▁semina	-11.8774
Troi	-11.8776
▁Hyl	-11.8784
elf	-11.8785
lid	-11.879
ste	-11.8795
All	-11.8802
group	-11.881
ester	-11.881
lett	-11.8813
2–9	-11.8813
Le	-11.8826
mphasiz	-11.8829
zcz	-11.8835
–37	-11.884
Rev	-11.8841
ministrator	-11.8843
SO	-11.8855
print	-11.8856
Recent	-11.8859
trum	-11.8863
▁refu	-11.887
Combin	-11.8873
enum	-11.8877
cript	-11.8879
▁impli	-11.888
standing	-11.8889
Xi	-11.8892
bridge	-11.8899
Hard	-11.8901
national	-11.8904
ME	-11.8904
▁Quar	-11.8905
ersely	-11.891
▁illeg	-11.8912
▁typic	-11.8915
court	-11.8922
▁Of	-11.8928
West	-11.8933
▁recognizab	-11.8943
tinction	-11.8945
ient	-11.8947
McClane	-11.8949
off	-11.8957
▁Boul	-11.8961
▁institution	-11.8962
Tai	-11.8968
16)	-11.897
▁(1966	-11.8971
angi	-11.8973
▁impro	-11.8979
present	-11.898
British	-11.899
▁CG	-11.8996
Initial	-11.8999
Not	-11.9011
monas	-11.9012
three	-11.9014
strict	-11.9021
versely	-11.9021
–199	-11.9027
gender	-11.9032
▁admi	-11.9036
▁accom	-11.9036
September	-11.9038
Viol	-11.9041
March	-11.9046
disturb	-11.9047
against	-11.9048
hundred	-11.9049
Nice	-11.9053
built	-11.9061
mu	-11.9061
Cryptic	-11.9062
cues	-11.9062
child	-11.907
excl	-11.9072
purpose	-11.9073
clad	-11.9073
Allis	-11.9077
north	-11.9079
Coll	-11.9079
$1	-11.908
four	-11.908
factor	-11.9083
Al	-11.9085
melod	-11.9085
eatures	-11.9089
burqa	-11.909
metre	-11.9091
▁favo	-11.9091
broad	-11.9092
Roman	-11.9092
Matt	-11.9094
particular	-11.9094
World	-11.9094
anagram	-11.9096
Sunday	-11.9096
headscarf	-11.9099
Puzzle	-11.91
pub	-11.91
honor	-11.91
However	-11.9101
nlight	-11.9102
French	-11.9104
flower	-11.911
London	-11.9111
izer	-11.9112
utton	-11.9112
vine	-11.9113
Catholic	-11.9115
You	-11.9115
Mission	-11.9118
compiler	-11.9119
Rock	-11.9119
qualifi	-11.912
graduate	-11.912
▁Colomb	-11.9121
later	-11.9122
noun	-11.9122
Project	-11.9123
info	-11.9128
0,	-11.9128
Turkish	-11.9131
▁Comi	-11.9131
Art	-11.9131
described	-11.9132
folio	-11.9132
Washington	-11.9133
▁char	-11.9133
track	-11.9135
College	-11.9135
code	-11.9136
▁Noo	-11.9136
▁(179	-11.9137
supporter	-11.9137
mission	-11.9139
certain	-11.9141
building	-11.9143
grammatical	-11.9144
commu	-11.9144
▁Som	-11.9144
Greg	-11.9145
North	-11.9145
project	-11.9146
central	-11.9146
Bologna	-11.9147
artners	-11.9148
endo	-11.9149
Jona	-11.915
Division	-11.9151
great	-11.9151
Bennett	-11.9152
Crosswords	-11.9153
established	-11.9154
▁invit	-11.9155
Standesamt	-11.9156
Mahanikaya	-11.9156
ferrugineum	-11.9156
▁introduc	-11.9156
Zimbabwe	-11.9157
Paradise	-11.9157
Husband	-11.9157
Green	-11.9158
Saturday	-11.9158
Cinema	-11.9158
standard	-11.9158
Violence	-11.9158
Cyprus	-11.9158
Venice	-11.9158
Penney	-11.9159
literally	-11.9159
Berlin	-11.916
window	-11.916
article	-11.916
reported	-11.916
Arauca	-11.9161
guards	-11.9161
spectacles	-11.9161
fte	-11.9161
Chew	-11.9162
League	-11.9162
essentially	-11.9162
Polish	-11.9163
(8)"	-11.9165
Hyp	-11.9166
natural	-11.9166
Orthodox	-11.9166
Vietnam	-11.9166
university	-11.9167
Wright	-11.9167
Production	-11.9169
hijab	-11.9169
elow	-11.9169
half	-11.917
niqab	-11.9171
opened	-11.9171
TEN	-11.9172
Affair	-11.9175
Found	-11.9175
Foreign	-11.9175
veils	-11.9176
direction	-11.9176
9.1	-11.9177
prominent	-11.9177
yste	-11.9177
anonymous	-11.9177
shore	-11.9178
historical	-11.9178
burka	-11.9178
speech	-11.9179
square	-11.9179
league	-11.918
piece	-11.918
historic	-11.9181
Star	-11.9181
{\	-11.9182
world	-11.9183
River	-11.9183
experience	-11.9183
Araucaria	-11.9184
around	-11.9185
ditional	-11.9185
Jan	-11.9186
norepinephrine	-11.9186
season	-11.9187
LOCAAS	-11.9187
Ottawa	-11.9187
fodder	-11.9187
brake	-11.9187
bishop	-11.9187
Tokyo	-11.9188
finding	-11.9188
Finnegan	-11.9188
Lawrence	-11.9188
committee	-11.9189
Italian	-11.9189
dream	-11.9189
JMAA	-11.919
vocal	-11.919
bara	-11.919
surname	-11.9191
Moscow	-11.9191
With	-11.9191
mode	-11.9191
Constantinople	-11.9191
monument	-11.9191
Norwegian	-11.9192
denomination	-11.9192
Edinburgh	-11.9193
drink	-11.9193
vaccinated	-11.9193
Champions	-11.9193
Atlantic	-11.9194
Ireland	-11.9194
constitutional	-11.9194
Education	-11.9194
increasing	-11.9194
difficult	-11.9195
Victoria	-11.9195
Labour	-11.9195
(3)	-11.9195
Flemish	-11.9195
merchant	-11.9196
conform	-11.9196
Māori	-11.9197
implement	-11.9197
independence	-11.9197
necessary	-11.9197
barred	-11.9197
Scott	-11.9198
black	-11.9198
produced	-11.9199
Neša	-11.9199
extreme	-11.92
Dutch	-11.92
Science	-11.9201
Wiki	-11.9201
gator	-11.9202
teaching	-11.9202
inhabited	-11.9203
element	-11.9204
supplie	-11.9204
letter	-11.9205
counter	-11.9205
Ott	-11.9205
Wall	-11.9206
management	-11.9206
change	-11.9206
White	-11.9206
digit	-11.9207
trade	-11.9207
publications	-11.9208
BEE	-11.9208
AFF	-11.921
Games	-11.9211
Allen	-11.9213
wild	-11.9213
Pak	-11.9214
Online	-11.9214
student	-11.9215
▁dispos	-11.9216
Hami	-11.9216
Roy	-11.9217
main	-11.9219
Paris	-11.922
stile	-11.922
Improv	-11.922
Sufi	-11.922
Whi	-11.9221
indicators	-11.9221
translat	-11.9222
Later	-11.9222
cryptically	-11.9222
49.	-11.9223
administrative	-11.9223
alternative	-11.9224
837	-11.9224
lady	-11.9224
human	-11.9224
BBC	-11.9226
yellow	-11.9226
across	-11.9227
tribe	-11.9228
itself	-11.9228
exist	-11.9229
How	-11.9229
Rose	-11.9229
ross	-11.923
corn	-11.923
▁commu	-11.923
177	-11.9232
roots	-11.9233
sects	-11.9235
story	-11.9235
above	-11.9235
outlaw	-11.9236
scale	-11.9236
teacher	-11.9236
southwest	-11.9236
Bill	-11.9237
grand	-11.9237
ckle	-11.9237
hidden	-11.924
product	-11.924
India	-11.9241
introduced	-11.9241
origin	-11.9243
But	-11.9244
shot	-11.9246
active	-11.9247
liff	-11.9247
▁1953	-11.9249
owed	-11.9249
ption	-11.9253
populat	-11.9255
education	-11.9255
review	-11.9256
gressive	-11.9257
Too	-11.9257
blue	-11.9259
Tim	-11.926
FI	-11.9262
case	-11.9263
$	-11.9264
Arm	-11.9266
route	-11.9267
Shari	-11.9268
common	-11.9269
writer	-11.927
▁(2004)	-11.927
conceal	-11.9275
▁digit	-11.9275
goal	-11.9283
immigration	-11.9283
affected	-11.9284
idol	-11.9286
designate	-11.9293
accessib	-11.9294
Pop	-11.9295
▁ti	-11.9301
▁Soci	-11.9306
1842	-11.9306
▁Glo	-11.9308
dispute	-11.9309
tructure	-11.9309
suspect	-11.9309
receive	-11.931
Music	-11.9311
grow	-11.9313
model	-11.9314
▁Epi	-11.9314
▁imag	-11.9315
Char	-11.9316
flesh	-11.9317
▁Mins	-11.9318
▁Euro	-11.932
▁creat	-11.932
Mil	-11.9321
150	-11.9321
Name	-11.9322
continu	-11.9322
▁academi	-11.9324
collection	-11.9324
taken	-11.9325
ather	-11.933
▁Ful	-11.9331
high	-11.9339
full	-11.9341
appro	-11.9343
Out	-11.9344
possibl	-11.9345
final	-11.9346
AN	-11.9347
bush	-11.9348
2013)	-11.9349
fell	-11.9349
wire	-11.935
▁spirit	-11.9351
▁Herb	-11.9352
▁sharehold	-11.9352
▁transplant	-11.9355
▁disease	-11.9356
▁viaduct	-11.9356
▁McDo	-11.9358
▁judgment	-11.936
▁(1987	-11.9361
legislation	-11.9361
page	-11.9362
▁airport	-11.9363
▁zone	-11.9365
▁amendment	-11.9366
▁spectacle	-11.9366
▁sustain	-11.9372
▁destination	-11.9373
▁restaurant	-11.9373
▁decade	-11.9378
▁Liburnian	-11.9378
AP	-11.9378
▁deletion	-11.9379
▁effort	-11.9381
combin	-11.9384
solv	-11.9384
▁Joh	-11.9385
▁pylon	-11.9385
▁playoff	-11.9388
rock	-11.9389
▁Application	-11.9389
routes	-11.9391
▁Pue	-11.9393
▁appoint	-11.9394
disciplin	-11.9394
▁(2001	-11.9396
lternative	-11.9401
▁Olympic	-11.9402
heard	-11.9406
Chang	-11.9407
trian	-11.9409
Gh	-11.941
▁Jeremia	-11.9411
author	-11.9413
▁contr	-11.9413
▁978-	-11.9416
183	-11.9417
pair	-11.9418
Mini	-11.9419
▁device	-11.9422
anni	-11.9422
▁Hun	-11.9422
pproach	-11.9428
056	-11.9429
Colo	-11.9433
strong	-11.9434
nformation	-11.9437
▁ide	-11.9437
leaf	-11.9438
▁prominen	-11.9441
▁Gar	-11.9445
▁Publi	-11.9445
pruden	-11.9448
species	-11.945
74).	-11.945
▁Mini	-11.945
nell	-11.9455
▁crit	-11.9455
eculiar	-11.9457
series	-11.9457
uality	-11.9458
reb	-11.9458
▁logg	-11.9458
CG	-11.9462
2010)	-11.9463
Neo	-11.9464
believ	-11.9465
Anal	-11.9467
▁Engine	-11.9468
Hat	-11.947
▁master	-11.947
GE	-11.9471
▁sc	-11.9471
°	-11.9472
volved	-11.9474
▁judge	-11.9475
▁na	-11.9475
▁Bloo	-11.9475
68)	-11.9476
wallow	-11.9482
▁Cros	-11.9482
▁Engineer	-11.9485
ä	-11.9485
courts	-11.9486
udiences	-11.9487
1974).	-11.9491
▁Residenc	-11.9491
–30	-11.9492
Bey	-11.9494
jour	-11.9499
igrant	-11.95
Immigra	-11.9501
▁religio	-11.9502
Pla	-11.9503
El	-11.9503
▁die	-11.9504
▁constitu	-11.9506
lung	-11.9506
1953)	-11.9508
▁abandon	-11.951
▁judg	-11.951
▁Extra	-11.9511
marta	-11.9511
lɛ	-11.9511
void	-11.9513
▁repeat	-11.9514
worker	-11.9515
AMES	-11.9515
illing	-11.9515
quarie	-11.9516
suk	-11.9516
▁Magazin	-11.9517
▁infrastructur	-11.9517
malgamat	-11.9518
Will	-11.9519
FF	-11.9519
▁preserve	-11.952
Alt	-11.9521
▁Funct	-11.9527
Italia	-11.953
▁wro	-11.953
Down	-11.9532
▁compli	-11.9533
onymous	-11.9535
inside	-11.9536
▁interpret	-11.9537
Sec	-11.9537
LC	-11.9537
▁arrange	-11.9538
promise	-11.9538
igious	-11.9539
loo	-11.9539
▁Record	-11.954
ifficult	-11.9541
dvocat	-11.9542
▁essential	-11.9542
▁Surve	-11.9543
▁influen	-11.9543
appa	-11.9545
structure	-11.9546
▁Burgund	-11.9546
nstructors	-11.9547
aliphat	-11.9547
course	-11.9548
▁Sport	-11.9548
mography	-11.9549
aggre	-11.9549
▁administ	-11.9551
UL	-11.9552
▁aggr	-11.9552
▁Govern	-11.9552
ching	-11.9553
graphy	-11.9553
–20	-11.9554
▁Neš	-11.9555
▁radi	-11.9556
ḫ	-11.9557
struct	-11.9557
▁respective	-11.9557
▁Kwa	-11.9557
tribute	-11.9558
bove	-11.9558
Anis	-11.9562
nant	-11.9562
abili	-11.9562
ddha	-11.9562
▁regio	-11.9563
▁Observ	-11.9563
▁Marshal	-11.9563
check	-11.9564
▁Morocc	-11.9564
2008)	-11.9565
▁Mathematica	-11.9565
▁boundar	-11.9565
▁phenomen	-11.9565
▁Biograph	-11.9566
atically	-11.9566
yntax	-11.9566
plied	-11.9567
piritual	-11.9567
ridge	-11.9567
▁cancel	-11.9568
▁Pil	-11.9568
morpho	-11.9569
▁Photo	-11.9569
ubsequent	-11.957
Day	-11.957
Aboli	-11.957
ertificate	-11.957
uccess	-11.957
▁spectac	-11.9571
▁Initial	-11.9571
ampaigns	-11.9571
ndicators	-11.9572
occer	-11.9572
sa	-11.9572
aliphs	-11.9572
▁kippa	-11.9573
Ice	-11.9573
7-1	-11.9574
ologne	-11.9574
afety	-11.9574
▁Bologn	-11.9574
mportant	-11.9574
▁Frederic	-11.9574
Bad	-11.9574
ebsite	-11.9575
roadcast	-11.9576
aïcité	-11.9576
rabic	-11.9576
▁discriminat	-11.9576
92–19	-11.9576
seudonym	-11.9577
▁Applica	-11.9577
▁Democra	-11.9577
abilit	-11.9577
scribed	-11.9577
▁theologi	-11.9577
▁illitera	-11.9577
estinations	-11.9577
unicipalit	-11.9577
▁Grav	-11.9578
hilosophy	-11.9578
▁communicat	-11.9578
evolution	-11.9578
▁wit	-11.9578
bserver	-11.9579
olutions	-11.9579
magazin	-11.9579
Liburnia	-11.9579
▁narrat	-11.9579
▁Bangko	-11.9579
ltip	-11.9579
▁materi	-11.9579
▁Slovak	-11.958
ocabulary	-11.958
▁suffrage	-11.958
blica	-11.958
arrative	-11.958
ecipient	-11.958
▁Secret	-11.958
communio	-11.958
occupied	-11.958
Trinit	-11.958
ア	-11.958
グ	-11.9581
affiliat	-11.9581
О	-11.9581
▁Virgi	-11.9581
ê	-11.9581
▁Ça	-11.9581
^{	-11.9581
ocław	-11.9581
yclop	-11.9581
ł	-11.9581
ń	-11.9581
ç	-11.9581
ОО	-11.9581
ructi	-11.9581
ffects	-11.9581
▁cancell	-11.9581
onnecti	-11.9581
▁Excel	-11.9581
▁cruci	-11.9581
Norw	-11.9581
▁Menno	-11.9581
▁Regist	-11.9581
yltransferase	-11.9582
▁Öz	-11.9582
Burg	-11.9582
ン	-11.9582
normal	-11.9582
cated	-11.9582
nches	-11.9582
▁Venez	-11.9582
▁scienti	-11.9582
▁diffic	-11.9583
wegian	-11.9583
von	-11.9583
▁wicked	-11.9583
elevision	-11.9583
iences	-11.9584
fjord	-11.9584
nstruments	-11.9584
armichael	-11.9584
ārum	-11.9584
sweet	-11.9584
▁McLe	-11.9584
faxine	-11.9584
▁villa	-11.9584
83-1	-11.9584
xote	-11.9584
▁Crypt	-11.9585
minut	-11.9585
ommendation	-11.9585
REG	-11.9585
▁expert	-11.9585
▁alternat	-11.9585
▁978-0-	-11.9585
Herz	-11.9585
ettlement	-11.9586
▁Liburn	-11.9586
Emb	-11.9586
ailroad	-11.9587
ossible	-11.9587
gress	-11.9587
824	-11.9587
ussian	-11.9588
▁Khali	-11.9588
▁flex	-11.9588
owiec	-11.9588
▁Alex	-11.9588
nglish	-11.9588
▁famili	-11.9589
▁Repub	-11.9589
▁Fai	-11.959
▁myster	-11.959
libera	-11.959
ghou	-11.9591
▁Picc	-11.9592
adjust	-11.9592
▁146	-11.9593
today	-11.9593
ialects	-11.9593
▁figure	-11.9593
1-20	-11.9593
overla	-11.9594
velope	-11.9594
olcano	-11.9595
▁Belgi	-11.9595
▁Runn	-11.9595
tique	-11.9596
eginning	-11.9596
fax	-11.9596
crimina	-11.9596
011	-11.9597
Gov	-11.9597
iqa	-11.9597
onomy	-11.9598
▁BAN	-11.9598
univers	-11.9599
▁Knight	-11.96
AMP	-11.9601
drome	-11.9602
rypto	-11.9603
ecular	-11.9604
▁Sign	-11.9604
geria	-11.9604
1775	-11.9605
▁hija	-11.9606
ḫan	-11.9606
stigat	-11.9606
pedia	-11.9606
conve	-11.9606
▁erro	-11.9606
▁depart	-11.9606
mples	-11.9607
▁McCl	-11.9608
Logi	-11.9608
antism	-11.9609
riangle	-11.9609
▁Puzz	-11.9609
▁situ	-11.9611
rgund	-11.9611
Tele	-11.9611
buni	-11.9611
▁Institut	-11.9613
▁Provi	-11.9613
▁Glas	-11.9614
1993	-11.9615
▁organ	-11.9615
▁Feb	-11.9616
▁Prince	-11.9616
Muslims	-11.9616
08)	-11.9616
operation	-11.9616
iaduct	-11.9617
italize	-11.9617
gura	-11.9619
▁Colleg	-11.9619
ogra	-11.962
tless	-11.962
▁Prob	-11.9621
▁prophe	-11.9621
harma	-11.9621
▁Shari	-11.9622
▁archa	-11.9622
zura	-11.9622
GG	-11.9622
ishments	-11.9623
neph	-11.9623
YP	-11.9625
opot	-11.9625
▁Paci	-11.9626
Oma	-11.9626
0-20	-11.9626
btain	-11.9626
▁Societ	-11.9626
91	-11.9627
matically	-11.9627
urban	-11.9628
▁Ace	-11.9628
riet	-11.9628
▁McC	-11.9629
▁doub	-11.9631
esias	-11.9631
ubmitte	-11.9633
unities	-11.9633
▁Evan	-11.9634
▁pare	-11.9634
ircu	-11.9634
ockey	-11.9634
mili	-11.9635
▁appro	-11.9635
formis	-11.9636
bani	-11.9637
PF	-11.9638
▁Holm	-11.9639
tress	-11.9639
AAS	-11.9639
▁Meta	-11.964
øst	-11.9642
talla	-11.9642
ermit	-11.9643
▁complain	-11.9643
▁proceed	-11.9643
efinit	-11.9643
3.9	-11.9644
therland	-11.9644
3–2	-11.9644
▁assess	-11.9645
▁impr	-11.9647
▁hack	-11.9648
mill	-11.9648
▁Admi	-11.9649
nix	-11.9649
RW	-11.9649
idia	-11.9651
▁Buil	-11.9651
-200	-11.9652
cupa	-11.9652
entative	-11.9653
▁Afri	-11.9654
▁Muha	-11.9654
11).	-11.9655
ppeal	-11.9655
blema	-11.9657
rarily	-11.9658
usiness	-11.966
utsal	-11.9661
▁Yar	-11.9662
lamis	-11.9662
imited	-11.9664
▁Guz	-11.9665
96	-11.9666
speak	-11.9667
wick	-11.9669
-68	-11.9669
keting	-11.967
▁Brook	-11.9671
eks	-11.9673
ditions	-11.9673
▁tolera	-11.9673
▁Scu	-11.9673
▁USA	-11.9675
udent	-11.9676
▁obsc	-11.9681
▁ent	-11.9682
cq	-11.9683
corp	-11.9684
ometry	-11.9686
Privat	-11.9686
viation	-11.9686
ratio	-11.9689
▁tele	-11.9689
kham	-11.969
▁Unit	-11.969
▁demo	-11.9691
▁fift	-11.9693
mista	-11.9694
gro	-11.9695
▁1798	-11.9695
pani	-11.9696
▁Product	-11.9697
▁Affa	-11.9697
ehind	-11.9701
0%)	-11.9703
▁Info	-11.9708
▁jud	-11.971
▁scor	-11.971
▁superi	-11.9712
▁55	-11.9712
OT	-11.9712
entence	-11.9714
▁quart	-11.9714
▁Colo	-11.9714
▁apost	-11.9714
▁conven	-11.9715
▁124	-11.9715
onsumer	-11.9716
carves	-11.9717
▁Histor	-11.9718
sburg	-11.9719
eacher	-11.9722
463	-11.9723
omew	-11.9725
rtation	-11.9725
ppressed	-11.9725
880	-11.9726
vity	-11.9727
uille	-11.9728
▁henchm	-11.9732
▁dendro	-11.9732
ontainer	-11.9733
NI	-11.9735
heim	-11.9737
▁Arg	-11.9737
▁facto	-11.9738
kward	-11.9738
▁Fran	-11.9739
978-1	-11.9741
21-	-11.9741
19–2	-11.9742
▁Fell	-11.9742
▁Diff	-11.9744
▁chose	-11.9744
roll	-11.9744
sibl	-11.9745
Rever	-11.9747
kpa	-11.9747
fou	-11.9748
ille	-11.975
▁Angl	-11.9753
rgan	-11.9757
eset	-11.9758
radical	-11.9758
▁roads	-11.9759
saving	-11.9759
▁Vol	-11.9759
riti	-11.976
wn	-11.9766
▁achie	-11.9766
urb	-11.9766
1%	-11.9767
1980	-11.9768
olish	-11.9769
øy	-11.9769
bala	-11.9769
arcel	-11.9776
▁Direct	-11.9777
CD	-11.9778
▁kn	-11.9779
bear	-11.9781
34.	-11.9783
fected	-11.9783
1990	-11.979
shio	-11.9791
ilos	-11.9795
Word	-11.9796
▁Lon	-11.9796
▁Ast	-11.9796
ulation	-11.9799
rrell	-11.9801
▁Brow	-11.9801
ojet	-11.9802
oss	-11.9807
nez	-11.9808
▁Banco	-11.9808
▁1974)	-11.9808
▁Amb	-11.981
timate	-11.9811
▁Stora	-11.9812
Len	-11.9814
▁Dig	-11.9814
raig	-11.9817
agoon	-11.9817
gets	-11.9819
▁uncon	-11.9824
mud	-11.9825
stating	-11.9826
rix	-11.9826
argo	-11.9829
Qua	-11.9829
▁Ish	-11.9831
▁manag	-11.9832
▁Puzzle	-11.9834
▁log	-11.9835
▁acro	-11.9837
▁Sham	-11.9839
uru	-11.9841
reverse	-11.9843
Qa	-11.9844
math	-11.9845
pat	-11.985
▁Lak	-11.9851
▁Arc	-11.9851
unset	-11.9855
Cat	-11.9855
ulia	-11.9856
iuli	-11.9857
▁Light	-11.9857
▁Edit	-11.9858
▁Kane	-11.9859
aughter	-11.986
▁0.	-11.986
95-	-11.9861
SH	-11.9864
upta	-11.9868
▁medicin	-11.9872
▁treat	-11.9874
ozo	-11.9875
emberg	-11.9876
yter	-11.9877
▁depr	-11.9878
▁Enter	-11.988
gning	-11.9884
▁Maz	-11.9885
▁Bala	-11.9887
▁neg	-11.9887
▁Every	-11.9891
▁licen	-11.9891
VA	-11.9892
▁element	-11.9893
▁Ohi	-11.9894
▁hundred	-11.9896
▁Mili	-11.9896
nization	-11.9897
gine	-11.9897
▁Kni	-11.9899
onthly	-11.9902
▁purpose	-11.9905
Br	-11.9906
▁Impo	-11.9906
wear	-11.9907
rmal	-11.9909
Kan	-11.9911
Go	-11.9912
▁Macl	-11.9912
▁incomp	-11.9914
3–1	-11.9914
21–2	-11.9919
IDA	-11.9919
▁distr	-11.9921
▁Europ	-11.9921
cenda	-11.9922
2007)	-11.9925
▁Hig	-11.9933
▁arti	-11.9933
ifter	-11.9935
▁auto	-11.9935
ield	-11.9935
▁Sub	-11.9936
2008	-11.9938
layer	-11.994
kh	-11.9941
plo	-11.9941
▁emphasi	-11.9944
lle	-11.9947
kevi	-11.9952
415	-11.9953
833	-11.9954
▁Dun	-11.9955
thman	-11.9956
▁greate	-11.9959
suppose	-11.996
pien	-11.996
ducts	-11.9961
discover	-11.9969
cking	-11.9972
ories	-11.9974
manag	-11.9974
angle	-11.9979
▁chape	-11.9984
ellan	-11.9987
epic	-11.999
▁Transf	-11.9992
–67	-11.9993
▁Pola	-11.9994
7–	-11.9996
370	-12
eryth	-12
dox	-12
NE	-12.0001
rtle	-12.0003
nati	-12.0004
▁Fac	-12.0004
▁Chape	-12.0005
phist	-12.0005
kla	-12.0008
▁fig	-12.0008
orner	-12.001
▁Mala	-12.0011
odd	-12.0016
ozn	-12.0023
▁Fest	-12.0023
Bar	-12.0026
CT	-12.0026
charge	-12.003
▁hig	-12.0033
▁Produc	-12.0038
ypes	-12.0042
lark	-12.0046
fro	-12.0048
sources	-12.0049
utl	-12.005
▁Franc	-12.005
size	-12.0055
wel	-12.0058
▁disturb	-12.0058
33.	-12.0058
▁Rat	-12.006
▁metre	-12.006
lane	-12.0062
ww	-12.0062
fj	-12.0062
▁Yor	-12.0064
ista	-12.0068
▁Will	-12.0068
Ir	-12.0069
ruise	-12.0071
▁TH	-12.0072
▁broad	-12.0074
▁stil	-12.0076
▁transl	-12.0077
▁bone	-12.0081
rchaeolog	-12.0081
▁Marco	-12.0082
▁Deb	-12.0085
Van	-12.0085
St	-12.0085
▁Reference	-12.0086
Pen	-12.0088
018	-12.0088
6–5	-12.0089
ppi	-12.0091
▁Belg	-12.0091
points	-12.0092
ogy	-12.0096
▁Dac	-12.0097
kg	-12.0098
ancing	-12.0099
tails	-12.01
Mr	-12.0101
Tra	-12.0103
▁Amph	-12.0104
rips	-12.0105
iou	-12.0106
assist	-12.0107
910	-12.0108
penden	-12.0109
ona	-12.011
-15	-12.0113
635	-12.0113
news	-12.0113
since	-12.0115
▁syn	-12.0121
▁fam	-12.0123
▁Aust	-12.0134
▁Tw	-12.0135
gua	-12.0138
▁excl	-12.0138
lette	-12.0138
▁delet	-12.014
aintained	-12.0142
stry	-12.0148
avor	-12.015
xta	-12.0151
▁gam	-12.0152
usu	-12.0153
▁divisi	-12.0153
ren	-12.0155
▁$1	-12.0156
▁Muse	-12.0158
▁Doctora	-12.0162
rrect	-12.0169
To	-12.017
▁Whit	-12.0171
riting	-12.0173
zo	-12.0174
icated	-12.0176
▁child	-12.0178
orate	-12.0178
tingly	-12.0179
▁insig	-12.0184
▁Hold	-12.0188
▁Eur	-12.0191
▁contra	-12.0195
▁Zal	-12.0201
▁positi	-12.0203
▁DE	-12.0203
▁ve	-12.0204
▁Seat	-12.0205
▁Ort	-12.0206
▁schi	-12.021
audi	-12.0213
rank	-12.022
▁Kuma	-12.0229
nly	-12.0229
shion	-12.0229
▁SU	-12.0229
Parad	-12.0232
▁sour	-12.0235
▁Time	-12.024
▁Lag	-12.024
5-1	-12.0242
▁pira	-12.0242
nnovation	-12.0245
hout	-12.0248
▁moth	-12.0252
▁Thom	-12.0254
▁norm	-12.0255
1978	-12.0256
xt	-12.0257
Ha	-12.0262
▁aero	-12.0264
▁Lang	-12.0265
▁Beli	-12.0266
kans	-12.0269
▁Hud	-12.0269
▁mast	-12.0273
▁Eri	-12.0273
▁Dial	-12.0281
▁forc	-12.0282
rès	-12.0283
hich	-12.0287
▁Kes	-12.029
▁anatomi	-12.029
nq	-12.029
AC	-12.0293
▁Bull	-12.0298
laborat	-12.0303
▁illu	-12.0304
ZE	-12.0308
rology	-12.031
nants	-12.0313
▁clad	-12.0316
▁Lou	-12.0319
nsure	-12.0321
▁Hyp	-12.0321
biza	-12.0325
▁Theat	-12.0325
fundi	-12.0327
▁Gior	-12.0333
awyers	-12.0335
ameplay	-12.0337
rite	-12.0338
ymb	-12.034
home	-12.0341
Ed	-12.0343
issa	-12.0343
▁intell	-12.0344
cies	-12.0344
flu	-12.0345
owsk	-12.0346
▁ensu	-12.035
ilip	-12.0359
6-	-12.0365
67.	-12.0367
Sola	-12.037
Er	-12.0375
sons	-12.0385
fus	-12.0385
org	-12.0388
▁Jose	-12.0388
dham	-12.0389
roid	-12.0397
▁Haw	-12.0399
▁Exhibit	-12.04
▁PC	-12.0411
hman	-12.0412
▁Bow	-12.0414
mir	-12.0417
▁wire	-12.042
pokes	-12.0423
stia	-12.0426
1892	-12.0427
▁tur	-12.043
ouri	-12.0434
eik	-12.0435
▁secularis	-12.0442
.7	-12.0456
thall	-12.0458
istan	-12.0462
▁intim	-12.0466
llton	-12.047
uling	-12.047
▁cook	-12.0475
We	-12.0476
▁expens	-12.0478
▁Moor	-12.0481
▁vac	-12.049
utchin	-12.0493
artial	-12.0493
oordinat	-12.0499
sbur	-12.0507
ffer	-12.0508
ayers	-12.0512
▁DI	-12.0514
ammar	-12.0515
▁homo	-12.0516
▁Sie	-12.052
▁pub	-12.0521
Xin	-12.0526
ntine	-12.0528
smok	-12.0534
fit	-12.0542
▁82	-12.0546
lus	-12.0546
902	-12.0546
▁sati	-12.0552
▁Archi	-12.0557
▁happ	-12.0565
anda	-12.0573
▁Olympi	-12.0574
ssman	-12.0578
arhead	-12.0582
tended	-12.0586
▁mist	-12.0588
epresentative	-12.0592
nap	-12.0592
nder	-12.0598
olle	-12.06
pende	-12.06
▁subs	-12.0613
saf	-12.0613
▁1,	-12.0616
chismatic	-12.0618
Be	-12.0618
▁jo	-12.0623
fect	-12.0624
▁fre	-12.0631
erlin	-12.0642
Cas	-12.0643
▁HA	-12.0649
INE	-12.065
parate	-12.0651
9,	-12.0658
▁switche	-12.0659
3,1	-12.0662
boro	-12.0662
ax	-12.067
strum	-12.0671
▁Bid	-12.0672
hur	-12.0678
▁Othe	-12.068
rganiz	-12.0684
rants	-12.0687
▁nei	-12.0691
vel	-12.0698
uppo	-12.0703
▁mont	-12.0704
atomi	-12.0707
▁Norma	-12.0708
CI	-12.0711
▁struc	-12.0721
▁cam	-12.0722
ceeding	-12.0726
Militar	-12.0736
ourney	-12.074
look	-12.0741
▁Pi	-12.0741
▁Abd	-12.0745
–26	-12.0752
▁Berl	-12.0754
Il	-12.0757
mpan	-12.076
▁Rig	-12.0768
rammar	-12.0771
▁Che	-12.0772
olar	-12.0773
ANT	-12.0781
▁Kay	-12.0785
ario	-12.0788
ergic	-12.0789
ptical	-12.0793
▁46	-12.0798
ehead	-12.0803
sari	-12.0829
▁conve	-12.0841
▁Tul	-12.0848
-4	-12.0853
termina	-12.0855
emale	-12.0856
▁Theologi	-12.0856
▁Run	-12.0858
▁eli	-12.0864
km	-12.0865
▁Syn	-12.0869
uiva	-12.0877
dom	-12.0884
Mes	-12.0885
▁Ok	-12.0886
▁Oh	-12.0886
isted	-12.0886
sts	-12.0887
icida	-12.089
–6	-12.089
rrison	-12.0895
Pas	-12.0895
deas	-12.0899
rbett	-12.0903
▁math	-12.0913
▁Sup	-12.0913
ej	-12.092
tting	-12.0923
rful	-12.0941
▁tang	-12.0949
axon	-12.095
zzi	-12.0953
▁Wha	-12.0954
▁gi	-12.0955
▁arch	-12.0957
onolog	-12.0963
▁bound	-12.0976
chmen	-12.0977
cryptics	-12.098
hem	-12.0985
lyph	-12.0987
▁suppl	-12.0989
fession	-12.1004
▁deriv	-12.1008
▁Farr	-12.1011
▁expla	-12.1012
▁Abe	-12.1012
▁y	-12.1022
oky	-12.1032
▁ende	-12.1045
nders	-12.1054
atient	-12.1056
sy	-12.1062
tized	-12.1063
pport	-12.1075
eli	-12.1088
vital	-12.109
Der	-12.1093
▁Walt	-12.1093
351	-12.1094
▁Far	-12.1097
78	-12.1104
mediat	-12.1108
1988	-12.1116
eneral	-12.1124
▁info	-12.1127
ligh	-12.1131
cine	-12.1132
indicated	-12.1137
eria	-12.1139
eview	-12.1149
styl	-12.115
pus	-12.1156
anai	-12.1162
Aus	-12.1163
ormation	-12.1171
▁Ki	-12.1173
▁Pea	-12.1174
▁cult	-12.1177
unche	-12.1188
▁muni	-12.1197
800	-12.1197
▁quick	-12.1202
tative	-12.1216
anyon	-12.1219
hel	-12.1232
▁Non	-12.1239
lana	-12.1242
PE	-12.1243
nast	-12.1252
mize	-12.1264
▁spre	-12.1269
Ya	-12.127
Ab	-12.1273
▁Ill	-12.1274
oken	-12.1286
overing	-12.1286
Mean	-12.1293
▁rejecti	-12.1296
amil	-12.1304
thematic	-12.1309
oration	-12.1315
Mu	-12.1321
Harpe	-12.1325
tin	-12.1326
▁Cry	-12.1338
Don	-12.1341
▁ref	-12.1343
ias	-12.1349
▁Hom	-12.1349
nteresting	-12.1352
12–	-12.1352
glis	-12.1354
test	-12.1359
▁Gio	-12.1366
▁regi	-12.1368
acle	-12.1373
▁merc	-12.1375
▁39	-12.1375
lues	-12.1377
vation	-12.139
downs	-12.1396
▁spir	-12.1397
ss	-12.1404
image	-12.1413
20,	-12.1422
▁wil	-12.1423
dyn	-12.1445
cure	-12.145
ommer	-12.1456
they	-12.1459
mic	-12.1469
▁specifie	-12.1471
avine	-12.1482
ply	-12.1483
▁scal	-12.1487
adle	-12.1495
244	-12.1518
anta	-12.1521
count	-12.1521
▁una	-12.1521
▁quali	-12.1526
nine	-12.1533
ines	-12.1538
ller	-12.1541
schedule	-12.1541
ebra	-12.1552
pposition	-12.1553
▁Bet	-12.1554
▁prec	-12.1558
nels	-12.1559
▁bot	-12.156
▁bear	-12.1562
fa	-12.1573
▁quee	-12.1575
mps	-12.1578
ehouse	-12.159
▁Trea	-12.1604
dho	-12.1606
▁prod	-12.1617
-8	-12.1624
sio	-12.1631
▁Rav	-12.1633
yne	-12.1644
ffa	-12.1645
hive	-12.1647
dation	-12.1649
iage	-12.165
lag	-12.1651
roy	-12.1655
yi	-12.1662
2}	-12.1664
onald	-12.1666
ox	-12.1673
defin	-12.1676
usc	-12.1683
tted	-12.1701
tangi	-12.1707
asce	-12.1707
▁Brid	-12.1722
lgia	-12.1727
ungle	-12.1729
▁Labo	-12.173
▁Cy	-12.1735
rber	-12.1765
eider	-12.1769
▁Wr	-12.1769
ope	-12.1789
nage	-12.1789
▁Bio	-12.179
owner	-12.1794
spons	-12.1804
lbert	-12.1809
tale	-12.1813
▁Mol	-12.1814
erat	-12.1815
lum	-12.1819
inia	-12.1833
istance	-12.1834
▁Comb	-12.1835
mped	-12.1837
beer	-12.184
Gre	-12.1846
general	-12.1854
dres	-12.1857
▁sin	-12.1867
ards	-12.187
▁Gha	-12.1871
gri	-12.1873
zz	-12.1874
others	-12.1881
▁Ei	-12.1888
ewspaper	-12.189
lass	-12.1895
hous	-12.1898
ducat	-12.19
affa	-12.1908
atta	-12.1916
▁0-	-12.1917
▁seri	-12.1918
current	-12.1919
eologists	-12.1919
▁Hou	-12.1921
nit	-12.1922
▁Est	-12.1927
En	-12.1941
ICA	-12.1942
elling	-12.195
DL	-12.1953
▁Cant	-12.1955
pil	-12.1957
fort	-12.196
rua	-12.1973
▁essen	-12.198
ug	-12.1984
106	-12.1996
▁Grad	-12.1996
rby	-12.2
-2000	-12.2018
▁Quee	-12.2019
▁Mate	-12.202
▁Ame	-12.2026
show	-12.2027
9-	-12.2049
lings	-12.2058
▁reac	-12.2066
ota	-12.2079
▁rive	-12.2081
structions	-12.2087
▁Tai	-12.2094
quir	-12.2101
vities	-12.2118
2019	-12.2124
▁meant	-12.2128
ntries	-12.2141
STE	-12.2155
nak	-12.2173
eeting	-12.2184
▁Bed	-12.2185
▁Hor	-12.2189
iu	-12.2202
▁Buddhis	-12.2206
▁blo	-12.2211
rsity	-12.2211
▁inci	-12.2211
ais	-12.2219
▁Demo	-12.2222
lement	-12.2229
▁Dy	-12.2248
ample	-12.225
▁stopp	-12.2256
▁milli	-12.2258
▁Kno	-12.2258
Region	-12.2263
▁Ama	-12.2266
athy	-12.2269
▁Gal	-12.2275
▁Sco	-12.228
▁ra	-12.2282
osi	-12.2284
nstruction	-12.2286
aken	-12.2286
▁Vei	-12.23
anned	-12.2305
oods	-12.2306
65	-12.2315
▁smalle	-12.2319
drew	-12.2322
▁Hil	-12.2345
▁Mond	-12.2351
▁det	-12.2352
nna	-12.2356
▁impa	-12.2359
rose	-12.2374
▁Let	-12.2375
ym	-12.239
56.	-12.2392
Intern	-12.2403
▁Krei	-12.241
ssia	-12.2418
▁Fred	-12.2423
6).	-12.2425
Convers	-12.2445
▁parti	-12.2449
▁Palm	-12.2459
ound	-12.247
▁Tri	-12.251
lections	-12.2519
upe	-12.2528
reeze	-12.2543
imed	-12.2578
temporary	-12.2581
myan	-12.2583
izations	-12.2601
olit	-12.2608
oked	-12.2611
literate	-12.2611
ctory	-12.2626
▁ME	-12.2637
▁1,0	-12.2645
▁Southe	-12.2649
▁rad	-12.2653
igh	-12.2659
hic	-12.267
▁Sat	-12.2688
ocial	-12.2693
▁dispa	-12.2696
mor	-12.2718
▁Sar	-12.2732
ickets	-12.2737
▁Vas	-12.2741
tta	-12.2743
ek	-12.2761
8]	-12.2763
ena	-12.2769
71)	-12.2773
nation	-12.2801
▁ret	-12.2806
ht	-12.2808
▁Ell	-12.2812
▁Ere	-12.282
po	-12.2832
tari	-12.2837
▁shor	-12.2839
▁Pra	-12.2856
▁ten	-12.2856
entity	-12.2882
ections	-12.2889
mos	-12.2899
.3	-12.2919
bone	-12.2926
▁starv	-12.2931
▁studie	-12.2931
inus	-12.2938
▁flee	-12.294
▁,	-12.2942
rg	-12.2946
mies	-12.2954
Ke	-12.2963
ind	-12.2972
Te	-12.2974
)-	-12.2996
unge	-12.3007
▁Fal	-12.3028
▁BA	-12.3045
▁specif	-12.3048
onsh	-12.3054
▁Mil	-12.3055
gram	-12.3059
ull	-12.307
85–	-12.3077
oa	-12.3079
eeks	-12.3092
odes	-12.3097
lem	-12.3101
▁(1978	-12.3105
underbi	-12.3115
▁Diam	-12.3116
ddled	-12.3121
oos	-12.3123
rena	-12.3136
▁pat	-12.3137
ema	-12.314
ongy	-12.3148
iles	-12.3154
stit	-12.3166
alian	-12.3173
ud	-12.3173
rmat	-12.3182
▁cui	-12.3186
▁Viol	-12.3187
genera	-12.3212
aring	-12.3238
ancell	-12.3272
▁Corb	-12.3273
▁prope	-12.3288
mbia	-12.3298
1992	-12.3301
00,	-12.3302
arc	-12.3305
Kwak	-12.3312
housing	-12.3327
rown	-12.3342
lam	-12.3347
▁red	-12.3349
▁bal	-12.3349
lli	-12.3362
▁corre	-12.3362
▁obs	-12.3362
▁journ	-12.3378
asting	-12.3393
arves	-12.3394
aptist	-12.3417
ean	-12.3429
▁dri	-12.3446
dals	-12.3456
ird	-12.349
▁Bou	-12.3514
posed	-12.3516
rø	-12.3522
Proce	-12.3533
Hy	-12.3535
omy	-12.3544
fin	-12.3556
1988)	-12.3578
68	-12.3595
Va	-12.3625
▁Vit	-12.363
pic	-12.3649
110	-12.3656
▁bra	-12.3657
rists	-12.3661
oge	-12.3664
▁har	-12.3667
immigra	-12.3669
▁Purd	-12.3673
▁discuss	-12.3703
▁reve	-12.3707
▁basi	-12.3716
ardan	-12.3725
▁categor	-12.3731
arr	-12.3737
185	-12.3752
▁inten	-12.3783
▁mil	-12.3783
assing	-12.3822
ntal	-12.3822
vey	-12.3833
ways	-12.3836
agree	-12.3852
▁Im	-12.3858
▁Cath	-12.3866
▁celebrit	-12.3879
▁bou	-12.3881
▁Poli	-12.3897
▁cab	-12.3915
▁wi	-12.3921
–1	-12.3933
osp	-12.3936
lla	-12.3939
ail	-12.3945
ess	-12.3947
▁Sys	-12.3957
ements	-12.3959
tions	-12.3963
lver	-12.3975
lage	-12.3986
▁nav	-12.399
ustic	-12.4004
ament	-12.4007
yel	-12.4009
Ru	-12.4021
utlaw	-12.4036
▁cano	-12.4046
tensi	-12.4052
how	-12.4052
squ	-12.4058
idel	-12.4085
▁beginn	-12.4103
▁ami	-12.4107
▁Ave	-12.4107
miss	-12.411
ndependence	-12.4117
utch	-12.4118
ido	-12.4118
Dur	-12.4122
20%	-12.4122
▁divin	-12.4149
▁Rin	-12.4162
tha	-12.4171
▁eg	-12.4199
Dea	-12.4208
ath	-12.4225
mate	-12.4227
etro	-12.4261
enda	-12.4269
resi	-12.4286
▁Dev	-12.4302
orne	-12.431
bout	-12.4319
uen	-12.4322
1960	-12.4322
need	-12.4326
rics	-12.4329
egra	-12.4331
ultan	-12.4343
ains	-12.4349
sting	-12.4364
quad	-12.4381
▁Sti	-12.4393
24.	-12.4399
▁Enigmati	-12.4416
21-2	-12.4417
▁(3,	-12.4424
▁Mou	-12.4431
eches	-12.4433
▁finishe	-12.4435
▁Reco	-12.4435
▁bec	-12.444
aph	-12.444
▁Por	-12.4465
trans	-12.4509
▁Bl	-12.4567
IC	-12.4589
ró	-12.4594
lon	-12.4599
ously	-12.4608
oose	-12.4612
dence	-12.4616
nfeld	-12.4619
▁gar	-12.4622
stal	-12.4638
usicians	-12.4676
▁Insp	-12.4676
lé	-12.4679
rre	-12.468
eol	-12.468
ellow	-12.4682
estion	-12.4685
ADA	-12.4694
malle	-12.4696
2/19	-12.4697
iva	-12.4701
llows	-12.4703
bs	-12.4711
utor	-12.4724
nist	-12.4725
rivate	-12.474
▁Brit	-12.4743
▁pers	-12.4754
▁Tun	-12.4754
she	-12.4768
▁curr	-12.4773
tland	-12.4783
yed	-12.4822
▁hor	-12.4823
nated	-12.4836
▁resu	-12.4836
EE	-12.4889
uka	-12.4892
illion	-12.4912
▁lea	-12.4912
chers	-12.4915
▁pit	-12.4926
Pu	-12.493
det	-12.4951
▁Gran	-12.4968
ien	-12.499
ease	-12.4992
▁wha	-12.5008
▁pri	-12.5038
sabi	-12.5044
acy	-12.5153
inea	-12.5154
▁moti	-12.5157
nto	-12.5172
abul	-12.5179
47	-12.5184
nen	-12.52
uma	-12.5201
▁926	-12.5227
smen	-12.5302
aving	-12.5315
eh	-12.5329
kro	-12.5337
hall	-12.5343
att	-12.5351
▁defini	-12.5378
ngko	-12.5392
nni	-12.5415
imate	-12.5424
bal	-12.5434
Mel	-12.5454
▁tri	-12.5467
yam	-12.5477
ake	-12.5481
NK	-12.5483
ebs	-12.5497
rams	-12.5521
alu	-12.5524
lier	-12.5538
▁unc	-12.5549
pas	-12.5557
▁Rosa	-12.5564
leet	-12.5599
▁consume	-12.5616
Par	-12.5644
▁Jul	-12.5677
team	-12.5679
pkins	-12.5701
▁Bris	-12.572
rey	-12.5732
▁inno	-12.5734
▁Wars	-12.5757
gel	-12.5758
ika	-12.5764
itis	-12.578
bject	-12.5801
▁projecti	-12.5805
rum	-12.581
▁Islami	-12.5813
anes	-12.5841
annon	-12.5847
eep	-12.5855
isto	-12.5858
Mik	-12.5863
▁1993)	-12.5866
roposal	-12.5871
30-	-12.5879
▁Wie	-12.5883
olin	-12.5891
ventur	-12.5899
drama	-12.5914
Lag	-12.592
mm	-12.5923
7-0	-12.5941
mph	-12.5942
CE	-12.5973
ella	-12.5985
ophy	-12.5988
▁Hear	-12.5994
▁20-	-12.6011
rip	-12.6026
post	-12.6055
▁Hami	-12.6074
oso	-12.6112
sil	-12.6117
ano	-12.6146
bing	-12.6151
tak	-12.6173
illi	-12.6175
▁seed	-12.6206
indi	-12.6223
section	-12.6237
▁Ward	-12.6251
▁Minist	-12.631
phi	-12.6317
anley	-12.6321
dey	-12.6353
rect	-12.6359
Nove	-12.6373
▁ES	-12.6377
▁Kha	-12.6432
▁Sec	-12.6444
1856	-12.6446
sport	-12.649
▁adv	-12.6492
▁phr	-12.6505
▁Hendr	-12.6514
verses	-12.6521
▁und	-12.6549
▁Ahm	-12.6565
opol	-12.6594
takes	-12.6599
sals	-12.6599
iameter	-12.662
Digit	-12.6644
wide	-12.6654
aying	-12.6658
ured	-12.6767
asts	-12.6774
ssi	-12.6806
▁Date	-12.6843
kings	-12.6847
tage	-12.6862
axi	-12.6892
▁Son	-12.692
tr	-12.6937
37	-12.6951
ples	-12.6985
rema	-12.699
rog	-12.7058
cons	-12.7061
hal	-12.7075
rley	-12.709
adscarves	-12.7117
ione	-12.7122
н	-13.3421
ə	-13.3422
ï	-13.3423
Ç	-13.3424
^	-13.3425
“	-13.3426
£	-13.3427
{	-13.3428
[	-13.3429
